<s>
<pad>
</s>
<unk>
,
.
s
-
a
:
e
i
)
t
n
'
...
o
?
en
u
!
m
r
y
er
"
/
an
te
d
in
;
na
da
ne
es
k
ni
ta
re
de
ti
et
h
(
le
l
la
ja
ar
li
no
ka
as
is
z
j
si
g
se
to
on
ma
).
em
ul
ch
ga
ing
it
ra
us
os
je
c
do
),
p
at
ko
mi
]
st
ve
nya
b
com
me
A
al
S
ed
ny
ki
am
2
om
un
um
ci
ku
lar
ce
va
kan
v
ek
ak
ke
3
▁ה
lo
be
il
ya
D
ia
ba
ca
ri
1
f
x
di
ge
mo
sa
w
C
ים
ng
_
tu
ju
im
ur
ie
ir
ho
ה
ai
ten
jo
ov
ro
go
est
ha
id
ly
nu
dan
den
ndo
mu
▁ב
I
B
el
co
sta
ning
M
za
lik
ler
K
ת
4
T
▁של
wa
E
▁ל
ji
nt
man
O
ment
P
ok
vi
▁את
du
nin
://
nie
zi
י
ad
ter
G
ze
gi
".
or
5
ban
pa
po
ben
ik
ou
ver
ot
der
lu
ste
",
bo
N
mos
H
io
ות
V
q
L
tar
ig
▁מ
kin
ru
ina
▁על
oj
ו
6
ita
au
F
th
ol
ts
ach
dir
ska
ty
ului
ini
que
10
bi
vo
7
bu
hi
@
ren
tur
des
so
ky
ut
cu
sen
ele
8
fa
fi
ye
ista
sk
ih
are
R
▁ו
men
U
[
nde
tas
tan
pe
sti
ada
ken
he
han
aj
das
9
nda
hu
ado
dos
nak
!!
ene
kar
▁לא
zo
su
uri
lla
nia
my
we
net
ll
mente
ami
ssa
30
ske
ן
ine
ks
lle
&
gu
ant
."
min
ez
per
by
lt
rea
▁די
tor
ry
ber
bar
nek
nih
ers
+
sz
ej
ski
ile
leri
ima
ven
ere
tion
ah
=
J
jen
ei
val
gen
yo
uje
lan
iz
ist
sel
che
pi
cha
nes
het
W
dy
san
ang
▁א
cie
org
nte
lor
ite
tik
sh
ana
ger
dar
ton
mas
Z
ster
tra
12
ala
X
asi
20
nje
!!!
lah
ii
www
les
sko
sin
ran
rum
ais
ung
tes
*
yan
ל
nja
ria
11
og
zu
ud
ner
son
ida
ari
nom
lari
era
tel
kon
Y
ata
mar
ker
2018
del
aren
lig
nej
▁ש
ens
iga
land
pu
ic
kom
ns
zione
vu
ali
tal
une
tis
18
vis
az
ion
15
dor
chi
cz
tak
nik
cia
ati
iti
ron
ting
met
ale
una
tos
nim
var
gar
gan
let
len
ב
mer
▁מה
up
ם
ab
tie
ica
mail
ling
):
vin
ili
vat
res
vad
elle
tek
tus
op
ire
rik
rat
mis
▁עם
ate
ille
van
ser
▁או
ram
od
▁און
▁אין
nd
inen
mat
inn
uar
fe
nos
uk
line
ac
ret
con
mm
pen
ende
illa
tta
tin
sal
ation
nar
iya
mak
lat
kat
▁זה
nych
the
24
▁כל
▁לה
yi
0
lin
los
af
cy
imo
nen
sha
pl
kor
ila
ר
ties
wi
dal
kas
for
ona
ft
ity
16
17
par
ide
eg
las
ara
ent
50
ert
tam
......
tum
ib
▁וה
sten
25
kel
.....
14
ck
kal
enie
owe
vel
sku
imi
num
mento
sse
ici
ani
ap
ira
mus
ד
jem
nas
ble
mp
rin
gel
13
iem
nog
ras
ס
ag
nis
▁הוא
bil
isi
La
tzen
ante
Q
>
mal
ית
aan
jas
ega
rit
sto
enia
א
kov
zioni
stra
red
tir
leg
ato
40
nem
bra
bat
ring
dik
jan
מ
gal
ade
fer
ט
ון
able
ama
nosti
ova
tre
ג
▁המ
and
hat
19
?"
tro
ika
mine
kur
ice
tem
ito
mme
dur
tele
issa
vy
din
hy
dra
ksi
tter
▁איז
tt
lang
▁צו
idade
ise
ego
cho
vor
nost
נו
ige
ua
21
ismo
▁פון
zen
fu
ש
ves
eve
tte
bit
lim
);
ח
nika
nou
pas
ura
pan
qui
nud
if
erne
rt
wan
iu
kk
hen
sch
tha
ec
lega
2017
tet
inin
br
car
zy
nica
sam
uz
nega
her
ay
ex
rak
yn
▁ס
ian
ies
dia
jos
jar
ure
bor
gy
ip
cer
ando
pro
via
area
nice
har
ket
sia
▁כ
tud
set
cio
ob
▁נ
taan
ojn
uta
100
bal
och
fo
owych
tura
ela
nti
ime
nut
end
wo
ados
vet
sie
one
ilor
ros
det
lag
ted
til
etan
ovi
unk
ris
eren
rar
mes
lam
lv
23
vit
tul
shi
27
tti
▁גם
vol
larda
get
mon
xa
idad
far
dom
av
ciones
tori
dis
ius
ott
28
!"
heid
ido
ham
nju
ano
gas
ori
miz
cm
tat
adi
▁לי
lara
▁ת
%
nce
The
php
art
rah
gr
iva
lige
tri
mit
22
endo
ong
dd
use
ero
ino
maan
26
bel
▁כי
vas
ix
lis
hr
sar
▁יש
ע
anta
ved
2016
bre
▁דער
In
nici
orum
kt
isti
liga
pun
ges
ede
hal
ett
war
eri
ering
rd
bus
jer
▁י
Se
owy
29
ef
eta
osa
jet
inu
▁ג
500
ibus
int
ley
rs
pad
eni
ovat
stu
mir
nta
Re
ora
ena
jon
lit
$
oni
iv
zer
stan
of
ija
https
can
juk
ande
ms
iste
ast
cs
don
tr
thi
gang
pat
nan
cat
tzeko
asa
lak
ק
tiva
sson
hin
mor
ui
ep
ella
ore
tia
tje
jes
arna
isa
dem
czy
ente
lama
mek
age
post
ator
60
nun
ndi
Ma
eu
owa
bet
45
▁שה
Na
ym
ych
De
uma
ך
lerin
tua
por
erna
lum
pre
kla
mana
index
pur
rio
aga
?!
ish
lon
''
??
תי
chu
ys
dig
med
amente
chen
80
▁אַ
any
ז
ev
sy
log
xe
▁אני
oz
este
siz
ff
#
nego
ieren
sky
imin
tive
כ
berg
sor
ische
pis
rii
pal
inde
wy
31
kr
No
form
stvo
90
lja
99
יות
rie
like
owej
pie
isme
sim
ean
zel
ligt
tim
som
jam
▁וב
vil
bb
pin
mur
xi
sid
dat
stand
ces
▁היא
isto
ings
cji
urile
ico
cht
kke
itas
sini
dha
stva
ons
lje
hed
tions
lay
nym
Le
raz
sed
ntes
pri
nio
pel
zia
ola
bud
▁ע
vik
TV
okat
2015
cher
oi
gt
xo
usta
pet
pon
ins
-2
wr
elor
title
2.
rang
eks
mise
jal
bile
Sa
over
dh
http
stad
lich
qu
qa
kki
ost
kka
tina
cija
vid
ava
lash
mai
ich
zie
else
tio
all
rad
יה
tivo
uan
lib
star
niu
nden
day
lek
נ
adh
dio
oli
tai
iko
vr
zem
ill
bir
gra
dk
itate
cions
aal
lardan
70
-1
mann
sem
dim
anti
ivo
lus
ios
dro
▁הת
aya
isen
ningen
ub
ono
skih
35
ive
kami
▁יותר
ard
luk
plan
zon
bh
eva
dol
pol
iki
ses
ement
rod
bas
hor
נה
tom
zan
▁אל
uh
alla
200
oje
▁אם
osta
stre
pil
uni
fin
owego
bur
een
fra
essa
יים
imas
sis
▁ול
time
king
out
dag
azione
kra
▁ומ
ux
sit
ער
sak
lab
gon
ane
asta
mist
kou
singaw
amo
▁אז
itat
lem
Fi
zio
eko
eli
maa
inte
anna
tii
Al
fen
hoz
mie
dam
aria
▁גע
nal
ding
▁איך
led
gue
kun
para
iert
aus
ף
pit
owania
oldid
▁ק
zna
lap
pt
mbi
cin
wie
esti
ete
pp
bro
IT
hus
iden
zar
lie
dagi
km
nic
eb
umu
eket
ps
▁ד
non
Ne
cion
tok
bis
nh
32
09
ds
pra
ingen
▁במ
wer
sat
mb
py
Ha
ving
amento
kala
gor
lom
▁ווי
nov
DA
sun
list
rus
skap
itet
kah
isk
rsi
ien
Vi
ilo
eke
lad
ence
apa
:00
ary
stro
ture
pul
ord
oc
▁האט
▁מת
eze
lere
ium
ike
▁פאר
pak
NA
Me
sins
SA
elt
ES
ario
noj
ute
01
taka
ann
Be
kus
nit
hla
oso
oval
ota
gur
ell
taa
hez
ier
gin
mba
cal
yar
ony
imit
rek
hol
kker
zbekiston
dus
hel
75
uda
sion
isten
jat
gir
kul
kaan
kol
tag
nji
mmer
sing
test
igh
esc
osti
gun
nings
Ja
port
unda
ase
sp
alt
vali
und
▁מו
ee
uj
00
hle
zza
kii
enda
put
fr
shme
dre
ray
gmail
ndan
ech
sur
mata
slag
vara
bla
bli
uti
uoti
gre
ult
uit
iad
ID
fri
ance
tari
ques
tay
cem
wikipedia
news
bili
lov
▁למ
rk
Po
▁בה
פ
vir
eti
▁שי
szt
isha
aha
Bu
ml
▁נישט
wyr
ind
An
fan
ral
▁מיט
encia
???
rne
OS
pla
bol
zin
info
rem
pus
jte
iza
lerini
ppe
air
ld
inta
hod
toj
2014
gia
▁ער
ischen
esi
mad
ness
bes
gna
ey
ungen
owanie
ppa
▁בין
yang
▁ר
fel
ני
way
ppi
pos
lli
tore
olo
▁מי
sche
dit
mbo
bin
dr
nk
itu
mel
mia
ץ
cre
Ar
El
tica
nga
stri
chy
ssen
..."
rna
יק
dores
zet
html
nat
tare
nci
hem
prav
04
wn
ese
▁אבל
minen
2013
tif
300
eur
▁זיך
esta
eaza
מה
rom
To
En
vien
alo
TA
yle
NI
werk
god
pot
yla
die
she
rez
ets
anie
fat
▁היה
cos
AL
ful
nus
amos
vers
ils
skom
ligi
lia
rzy
פי
sus
ania
bri
ont
nder
atu
inis
rel
takse
rer
לי
awa
isht
kos
..!
▁עד
NE
ttu
Ba
BA
enza
anda
NG
!)
pper
ls
dzie
lta
vos
kim
tzea
iri
Ka
sinin
iau
}
ust
lgan
tika
05
larni
wal
ove
ave
MA
TE
elo
dz
▁זו
ams
ladi
band
hl
skog
tv
rai
umi
צ
-3
08
Do
Pa
bon
^
aca
LA
GB
-19
ose
07
kir
iye
adas
DE
igen
llen
gro
had
dek
wel
nza
col
igi
tid
hang
aba
rada
kam
oja
ace
bul
kg
dele
von
jn
iet
ST
film
gat
.000
imiz
tera
NO
ין
tung
maq
imus
yl
cja
tun
צה
ijos
uka
tada
36
cje
ette
iro
usi
ple
iska
fal
gil
TO
bio
langan
sol
side
ihin
US
nc
ow
gli
ism
ule
but
oko
gos
dhi
ajn
care
thu
tako
iai
95
zni
sje
kle
dere
szer
▁וואס
zh
IN
Si
nel
kirin
kiem
yer
41
bang
גע
ningar
So
auto
andi
eau
AM
ovanie
teen
kut
oma
sty
▁עס
aja
kie
grad
ith
cel
cul
dzi
isia
inni
sek
lec
iset
app
zik
rim
bie
06
ern
bl
iche
ments
cije
mani
gere
PS
yu
Mo
stav
MP
alan
OK
owym
unt
ohet
lic
SE
נות
tz
iek
fall
bia
rup
nad
▁ח
alta
▁לו
יו
33
plat
bot
-10
udi
▁אי
spe
יר
mini
aka
ude
stel
nam
kes
char
46
kai
nir
llo
48
str
yin
anak
vanje
uli
ther
39
AN
wch
nsa
tig
▁בא
aran
isch
riya
cas
ug
less
gs
וני
▁צ
KA
isin
SP
-18
▁בית
aire
yon
hon
gh
kit
heim
win
sze
Li
000
03
pres
ayo
tic
rka
02
▁הה
kali
rei
▁בו
ador
chod
tit
▁ישראל
liv
sio
inio
kis
voj
nne
▁אחד
-2018
kirja
CO
sjon
PO
gio
ht
acji
AS
מי
▁בר
ula
vez
ako
▁כדי
tru
cam
rze
bank
itatea
gg
▁רק
ats
emos
bare
tka
tab
skim
ppen
jak
Ta
blog
rian
▁כמו
ait
SI
got
▁שנ
larini
rse
erte
▁ז
-12
IS
ging
II
hir
mark
nni
vio
sport
mg
58
stru
cc
lina
די
▁כך
bak
hari
miseks
qi
MI
llinen
TM
taj
לה
ans
data
verk
borg
nova
sul
.10.
▁פי
raj
ney
link
zko
▁בע
nka
park
video
800
kort
lio
eret
syon
ijo
pr
zat
34
pod
maya
iamo
ums
tine
▁פ
ovali
-5
dul
tuar
ping
▁הנ
▁הש
sc
rig
cze
ulo
ngu
jev
Ge
inter
hur
aux
vod
2)
unun
tais
Te
ries
▁שמ
dhe
▁לש
uku
cor
ath
kwa
shop
radi
abb
has
rg
Mi
cum
mina
oh
vanja
ME
long
qo
iniai
Co
dla
tto
lou
menn
laga
dina
kre
▁דעם
owi
2011
rp
lui
kh
Mu
wat
2012
nah
400
או
him
nn
600
liche
orang
iyo
TI
ilen
aji
ville
Pro
SK
ction
Com
vati
▁הם
ezi
slu
nau
cis
sso
sil
כל
keun
ous
turi
gla
alis
62
ants
arte
CE
dum
not
kad
jin
siya
reg
ithe
kot
owo
צי
mh
niki
LI
imet
IP
37
dne
▁בת
idi
nap
pati
38
eux
baar
rov
gl
cle
lai
-20
eh
AB
aigh
fici
lica
rib
cker
jum
wang
kop
iam
ingu
anno
yd
massa
nna
site
lerde
assa
eiro
gno
▁שב
lev
uko
UL
rdi
Ho
selt
fon
cca
▁הי
WA
ldi
kata
angan
eer
kara
koa
kem
dala
omis
adda
kry
▁איר
4%
nimi
!!!!
jad
kup
spel
rata
unu
may
zim
mpi
inti
cka
AI
kha
hit
eksi
sho
kli
hara
ildi
raf
2010
kken
aza
klad
fur
eerd
iku
dil
HA
kari
gol
▁אויף
ique
aste
ament
61
udo
43
vert
מו
-4
qe
EN
/1
3%
93
asan
dora
name
aq
eel
ppu
96
55
Je
GE
cus
usa
teur
wen
51
mista
mez
ph
box
gum
RE
lada
erer
neet
dami
bg
sum
76
ovej
VI
נת
JA
press
sama
Da
ema
owane
UM
hra
iel
lung
pag
eira
AR
yada
bru
mbang
toa
Con
duk
spor
rok
uro
spo
utu
cken
lse
8%
isse
82
MO
rta
mand
▁בכל
▁בי
▁הח
ANA
rica
nger
sco
▁הו
ddi
gov
Atom
cza
lly
Ko
olla
kite
lk
ball
נים
tza
We
/5
nico
wyd
iadau
ovo
ilu
fre
nach
vus
91
6%
gri
idos
tten
:15
yen
ked
feira
mah
92
PC
PA
57
Ra
ric
yr
▁לפני
RA
igu
bad
פת
mun
dah
lun
media
hand
54
vai
AD
lju
tila
lei
jel
oro
mil
...)
sza
dad
רי
oedd
eth
65
igt
menti
pia
44
mena
lid
drag
/2
ען
ndu
ER
lichen
tava
hui
ologi
nto
lyn
eme
ssi
tav
zor
cou
osi
back
bou
lot
teko
larla
cit
Bo
vam
ades
ein
lep
syn
kant
sos
Man
uch
לו
idan
9%
uju
MB
dob
esh
iy
rri
tara
bok
rol
Ro
urilor
stin
uoja
bah
ines
52
sme
uja
uto
TS
88
zwa
ishi
rais
lerine
istas
anto
2%
lise
larga
urs
72
nyt
mien
sent
mbra
legt
hay
בי
uru
liste
weg
vej
sir
kap
SH
sana
85
gis
AK
etako
59
49
כן
blo
/10
izi
eniu
nike
cil
udu
42
He
fla
anza
vous
jung
SO
כת
kti
adu
zes
hli
▁ביותר
nke
jus
tiv
CA
rni
ovala
rako
plo
עס
erat
nl
umo
vano
tev
acht
lerinin
DO
atan
ikka
daki
stup
\\
▁הג
iske
יי
atori
eng
gut
64
47
toria
צו
uose
lice
siga
ciu
katu
▁עוד
רת
dt
-15
ue
cco
cara
jom
dni
pass
mod
tjes
yor
MS
fir
ome
יש
בר
5%
rb
kho
alle
stitu
bed
arak
נט
rul
iran
▁הס
hre
-17
DS
-16
ford
-6
81
avimo
cov
erek
bles
vre
pes
73
fest
burg
kil
jumu
odd
mene
rap
bau
nay
zeit
nor
cima
56
was
wiki
ncia
tuk
CC
דה
qua
tol
tve
TT
▁ידי
arekin
nai
annya
sime
▁הב
top
ij
zam
tuko
sex
▁שלא
קס
ello
2000
nye
cen
על
nner
tega
..?
keta
gni
hou
tico
zz
84
ago
antes
hana
inga
ונים
INA
mang
KO
jana
MAN
kse
1%
ydd
ierung
דר
rita
אי
__
UN
alam
roz
cchi
web
Di
ikan
ink
olog
אל
ANG
evi
ום
bay
dai
riz
1000
ologia
book
dri
ller
anka
Su
prac
rou
sine
eller
uksen
cev
anga
ders
69
kta
53
acak
leme
עת
isesti
RO
Un
ax
rika
rlo
elu
ור
gul
mut
כה
gaan
pada
rz
gus
njem
idh
sik
lles
aci
yicha
ARA
inne
avo
7%
jot
vala
sted
mari
aika
teri
jm
beli
its
ific
tima
iteit
SC
UR
lea
abi
▁ולא
ndra
yam
tang
ned
Ni
כות
77
.11.
dien
ming
fil
itaj
uhan
66
AT
pha
erar
szy
ining
tec
edi
02.
etik
YA
FA
avi
▁להיות
ivi
lg
IR
idas
uksia
lut
gem
ttiin
zd
▁אשר
lur
TER
▁שלי
97
wing
▁הא
fn
els
eix
wit
izar
tys
bha
uzi
lana
pozi
GA
▁מע
מש
94
rke
lys
nyi
▁הזה
uran
jai
acija
entes
dje
recht
oti
gina
zal
sione
AC
Ke
rci
pata
isation
ונות
kl
sht
hid
ול
:10
vek
try
700
unum
kuu
tze
tty
boj
cra
PI
skie
▁לב
-9
krat
kum
rant
larning
lish
טי
rade
edu
stoj
hai
wod
SS
־
86
Per
skej
KE
hun
מן
gene
mpa
LE
JE
קה
maz
tana
cro
ilta
cina
יל
Lo
ciju
liku
AP
dige
גן
ct
RS
ial
daj
niem
▁אותו
uks
idades
▁כמה
mag
יד
schen
kach
mul
dot
AA
tki
mont
dda
pdf
rte
jor
mesi
ON
ame
aw
רו
יז
lands
ume
iji
hna
row
juma
kia
EK
gad
tah
IV
dana
gle
eco
▁מאוד
ril
imu
rje
etti
07.
ecek
▁יו
וי
BU
cap
esse
.12.
וח
odi
Tu
rre
mada
kaz
ונה
ebb
lej
mais
aku
rent
^^
cional
tov
63
▁עו
psi
UK
git
71
rile
bek
misel
sas
punkt
mate
Ku
2009
rana
▁סי
▁מא
parti
iranje
ware
mond
oto
Ver
stvu
cik
lika
יט
שה
erade
remos
wia
aro
כי
vie
kri
Ch
:45
fl
hil
asyon
יב
rut
dade
xan
kku
68
teurs
nts
ekin
posta
CD
ship
pare
fit
bos
<
COM
taja
gne
scri
iin
ngi
Az
handel
abil
bs
lini
oba
▁לאחר
▁ט
ikke
aine
wis
hold
rot
rado
rium
xu
-14
IC
enne
LAR
▁להת
vent
sca
HD
omba
yal
ADA
wak
Mar
naj
BI
ije
nca
skar
usu
VA
74
bila
iso
ias
hati
SU
2008
EL
gua
mica
ibh
kro
zek
run
ndum
lain
IL
tou
rra
bert
Es
mati
itti
rau
oor
fun
rish
niz
nul
buk
gada
shin
EC
tish
יון
uga
wah
rti
lal
קי
כם
heit
llu
Jo
skem
wu
cep
▁המו
:20
RI
lok
שי
Google
oo
lista
jski
98
נס
ffe
-11
owany
ggi
elles
iana
ovanje
niku
-7
spec
off
ydi
isko
bt
yti
mik
Ti
cula
Za
vita
▁אך
נד
tisk
system
oon
uer
als
▁לכל
erende
iksi
cent
סט
▁שם
sida
cur
uso
ole
iter
רים
tage
gie
hely
sser
עד
כו
Bi
etta
▁שני
sled
skoj
pala
chten
roj
טער
▁היו
rab
atur
תו
CH
ches
LO
מל
anan
chan
jun
▁ניתן
Die
Ga
liq
wir
gui
sies
ivat
nite
bab
ulu
acha
gara
apos
ffa
rati
start
kod
peri
בל
83
ינו
ירה
▁לע
▁זאת
IM
AZ
endi
kirina
kaa
vest
deki
PR
פו
▁הע
▁הר
CI
meni
ונג
נית
nil
rina
08.
pti
low
stat
uu
/4
part
-8
jek
adores
BO
utan
לא
zbek
kte
isce
▁לת
fs
yg
sad
lf
angkan
tut
vje
IA
ovou
PP
date
קו
owie
DI
EM
ions
פים
anja
אן
iwa
lerinde
ungs
gres
valt
ox
uur
klo
komst
ndar
ingar
ED
▁וי
tea
UT
druk
lka
bun
yje
יע
Fa
pek
rma
more
lau
ְ
ged
gam
eurs
KI
Du
1)
▁חי
dav
פס
tsu
IK
ATA
RU
kita
mara
NET
IO
isiin
otto
לת
kkel
רה
▁קו
Mail
ossa
tib
heten
▁גר
itan
CP
iny
▁זיין
dyn
▁בני
fort
medi
asti
Go
▁לנו
fec
stellen
HO
tionen
acja
▁יום
teli
rate
mol
limi
eres
oir
tle
ides
ujemy
gabe
ggio
mma
flu
GI
itus
hala
ejo
vs
DER
stein
bara
.01.
rede
iks
vend
nimo
skab
ILI
rif
/3
aeth
yev
tse
▁דו
Pe
SM
יך
tong
uc
67
ruh
bruk
imh
tant
▁מען
puol
ffer
daan
mens
/2018
work
צר
acaq
stus
fte
escu
לים
בו
rende
iera
uze
toja
rro
eiros
eras
lerden
mbu
▁מס
zul
hm
▁הפ
zzo
וב
old
cla
fanya
▁מר
iyor
kira
haus
stil
mot
dic
jah
בן
UP
טע
valo
tui
DU
utta
iba
indu
Nu
politik
ntu
Er
lerinden
iyan
suk
nnen
bord
2-
aad
chte
▁כבר
For
HT
dev
מר
tani
dest
▁פֿאַר
uste
dica
prot
dok
layan
מת
dari
יג
ghi
teng
sau
egy
oji
pic
ologie
vn
uw
program
ient
dega
ctor
rite
ghe
pai
vna
liyi
merk
alka
jur
tala
lanan
▁כש
eja
tere
ראה
sang
auf
mmel
▁מח
dama
eza
▁מש
spon
ATI
schaft
sma
laki
reiz
fy
urinn
")
89
bere
zone
rung
eus
yk
▁דא
aires
lav
rid
78
amba
ores
Or
רות
mam
trice
וו
tama
stop
ngo
tsa
▁שלנו
landi
gado
ort
bina
tsi
ZE
lais
oda
ajiem
foto
mk
▁לפי
ntis
sinde
khe
ווי
UNG
150
tog
well
ifik
mbar
Pre
Ex
CS
lga
kraft
wala
bod
dle
▁קל
arra
87
late
span
hte
spa
ash
ward
lisi
phi
egi
ston
eld
vul
HE
nez
ITA
ointi
rc
TU
cept
nije
atus
obra
tting
▁כאן
▁אר
tez
▁בן
hau
oare
jama
gress
iques
talan
ister
As
lub
aug
rja
zne
ALA
pred
Ki
:1
ws
utus
tati
law
ables
mpe
rij
LS
tiga
▁טוב
key
cut
last
vjet
תם
innen
tivi
llis
hotel
zana
edd
inas
▁זיי
sya
ahkan
ujeme
kej
jums
ipun
blogspot
tate
skega
indi
mula
dde
LY
lainen
asia
מים
lement
GO
SZ
bei
oka
uv
lust
autres
:11
arta
AU
UA
cke
light
▁האם
▁מיר
iner
klar
ped
rug
sala
BE
uf
ily
kaj
ASI
elig
anje
▁שלך
KS
irati
זה
atie
uel
rekin
phe
pena
nur
/6
ENT
ayaan
dang
torio
yt
ento
ohen
EU
loj
vana
rac
hd
נק
cak
PM
1-
▁אחר
curi
ALI
ikat
jim
▁הבית
אות
just
דע
On
lius
ukku
LER
say
ukan
reng
alu
Ca
vice
dun
oga
pio
talo
BS
won
malla
nama
mbe
IE
lne
ulla
bild
dl
yun
rama
tech
okkal
ione
TC
RT
lata
otta
jt
timi
quam
anse
900
front
שים
sig
hti
achadh
CK
rett
sChat
gens
▁חלק
sper
ual
.04.20
עה
byt
veri
tunk
▁נו
dlo
מות
gala
ize
itev
Afrika
staan
24.
gai
aar
play
יין
iendo
pool
eo
▁היום
iere
//
06.
enta
koak
atra
Th
.05.
siden
▁לח
stor
igo
▁שלו
wydd
120
tasun
lsa
bide
Hi
tique
lni
OP
amu
irea
eit
קט
:12
vesti
fic
telen
ukset
kommen
אר
ARI
yil
bona
iser
iyet
onte
eno
jih
:01
gend
lima
ues
sili
miento
פל
mic
mmen
aman
eya
Lu
סי
mier
ations
nata
bola
tku
אַל
▁יכול
tavad
izm
PL
lock
mission
HI
stava
ense
ajo
TEN
trauk
lj
ales
ksa
olu
תה
:25
inger
see
▁הק
gawa
kula
/2017
ansa
pay
ely
imento
EP
יס
לט
elijk
bij
▁לכם
3)
gues
dara
...!
spre
aksi
טל
rien
dhu
iger
rob
baba
▁קי
elijke
kuwa
iaeth
lip
chat
gger
kultur
▁צי
uus
akan
istes
glas
bung
opera
kunta
IX
uff
tasuna
gji
vne
פות
ingiz
ical
wys
aime
beri
abo
/11
dou
Ya
suz
into
▁אתה
vic
unan
enti
hot
חת
meye
עצ
fond
hof
bran
skrift
vari
vyk
▁שיש
ZO
vije
inden
arka
ixo
Ju
bry
than
קל
tot
pir
+1
ibi
ZI
itud
▁באתר
abilir
▁רע
pers
lih
ujte
ars
nev
EST
lund
vanju
ain
גל
Car
nang
zas
cola
ranno
nig
keit
cing
AH
tata
PE
irt
▁זענען
dera
▁ממש
idu
wani
ninger
zka
DC
ulan
nec
yek
mid
vede
pho
ligen
vier
kova
maal
lent
yong
tation
▁מספר
nki
entre
lijk
ttaa
lene
rgan
ungan
▁שהוא
uren
icos
sub
wm
וז
roc
tene
bbi
lerle
ilishi
tali
rir
erede
rf
kko
avimas
dii
tors
poli
kulu
inka
ingi
itra
oase
iak
unta
misen
antoj
BB
OL
satt
lade
LU
feld
rangan
fica
vasta
:16
koli
/9
dak
sob
79
heden
nummer
opp
Ad
News
="
פּ
inda
2006
▁רו
untur
seks
hum
page
NS
Wa
נא
eron
hne
▁שר
עות
tma
ight
STA
viz
CR
service
almente
:13
iese
IZ
agi
:14
▁אינ
kade
pta
שת
delen
amh
▁אחרי
iyay
פר
PT
ruar
dov
laj
FI
tuu
view
▁זי
▁לך
nnan
tern
Gu
iju
colo
nska
gjen
dagen
oloji
table
-13
cks
text
▁ללא
-2017
atge
לב
sien
stur
/12
pris
blad
NT
iyat
.1.
skan
tja
rach
tida
ote
EZ
kama
projekt
SD
mektedir
:40
:17
wert
wali
ubi
wyn
endum
▁הרב
nge
pina
firma
sut
dru
▁נע
▁לק
lir
erad
lma
agem
טה
nol
araq
eken
fru
itza
Am
cr
upp
tej
▁אפשר
אַר
ינג
ekkel
ikus
ING
ahan
imai
gende
veni
ljen
volu
itis
vok
VO
Ri
נע
rmi
▁ונ
matu
osios
cada
-0
MU
uza
riko
gge
unar
ET
It
xit
נג
TH
hiya
wor
landa
zki
rej
erunt
KU
timo
sah
joje
DR
iei
dali
ntar
laka
/8
You
kz
lage
dze
AG
diga
TP
cade
nske
mala
zg
onta
LL
bing
ARE
fek
sod
tores
tne
פט
2007
cari
sele
halt
egu
▁אביב
fol
emo
yb
yim
wand
טר
Art
יא
cti
:50
גר
tioner
▁עבור
▁הכי
vno
▁שנים
ender
orna
tettu
vang
▁דבר
fundi
karan
house
eid
place
AMA
▁שת
▁הרבה
ters
וג
vaa
tino
OT
פור
leng
laya
:19
ָ
kola
vere
▁ני
ullah
bari
aithe
rme
ugu
:18
emi
EA
avat
illo
jali
live
DD
uji
erd
:22
java
nymi
max
wana
biz
mum
omi
nnar
koh
inha
elli
cznie
rend
kea
רק
EB
isering
konto
itse
konna
jate
sema
teni
GY
aid
wed
וס
ילה
zze
aks
stal
ireo
hut
250
dow
ינ
vig
/2015
aldi
svar
neb
BC
tetaan
HAN
amme
board
hab
nese
tex
itz
vou
▁שו
jska
אים
kanak
ctus
skiego
voor
door
ntas
riad
dka
sok
tero
Net
NN
vei
jne
▁פֿון
pok
BER
ahi
tili
tice
iq
ffi
kuva
stellung
lariga
glio
rla
istu
-21
ebilir
WE
מע
OR
under
rsa
glia
Il
muk
kende
vand
seid
liz
jeli
gift
atzen
ighet
tado
kord
cida
aat
▁כן
ect
ANI
life
ishwa
rist
EE
llar
voli
vate
too
isan
razi
ַ
{
▁דאס
sl
:23
gana
VE
uloj
spekt
onych
ilt
njo
main
pere
maks
sett
ERA
tho
abile
sund
dziel
pari
Ab
eris
url
love
ND
fund
INI
NK
ופ
lach
Video
bog
▁רב
siniz
/2013
esa
jeti
amp
skiej
izzazione
etto
cky
fog
odo
▁אחת
EG
Her
NY
gade
רע
uter
ITE
FT
kkal
erea
גי
kning
aidh
ors
niai
[1]
cip
rken
ografi
Bar
arma
▁תל
bart
kers
ithi
czne
elsen
onen
tent
buru
ikin
▁לעשות
rius
rier
leder
שר
ייה
apo
seg
wol
nana
rli
spiel
itos
cad
.[1]
eria
**
ology
vist
Sch
guna
▁הכל
tei
izado
בא
tain
email
stelling
rav
jde
ijn
cons
בה
gram
AJ
INE
MM
owana
▁המת
▁בח
וע
צות
nikov
online
nze
hard
קר
west
:21
ussa
.......
zett
rela
RM
vista
huis
״
vih
cular
:05
ringer
jpg
elen
ibu
mog
lies
rena
full
:24
RC
ones
awan
KAN
toi
arum
inci
stig
▁אלא
NING
amaan
/2014
ail
vision
miseen
itur
tului
wood
▁זמן
kast
▁וא
ally
mend
yet
usz
bag
pli
hib
ffen
dini
czenie
fika
tiin
▁בש
okra
oak
gren
rva
tatud
maksu
itor
UD
eerde
cial
article
valg
kurs
rije
teria
PU
גו
eka
taria
%)
uva
laus
gers
loga
mber
yum
kunnan
even
stwo
enden
lagt
zil
peli
elser
pren
rani
yw
usti
stol
צע
spar
eed
יית
ilgan
▁וש
labora
:59
legi
Ve
holm
tivos
pang
hk
rza
azioni
igkeit
cii
quen
teik
ating
cess
nete
ndung
afi
motor
poj
phone
jumi
dela
wad
graf
JO
אַ
אט
smo
gte
kina
ורה
zir
vite
atura
lho
pide
agu
jeni
5,000
vare
tius
mund
lp
pping
▁אנו
▁אנחנו
voi
igas
pm
osan
dura
ruk
iant
pende
klas
urus
מון
imeve
stilling
arinnar
dez
09.
feri
rich
EX
anne
LC
YS
Ru
koz
remo
ery
euse
logo
pru
ood
-30
ZA
TOR
xon
▁ראש
חו
LT
kart
camp
aye
skou
ovima
tiba
llisen
LET
kok
arbeit
hora
מד
kura
IDA
ומים
tiko
idagi
בים
TY
:35
VIDEO
mera
dare
▁קשר
kien
iano
toon
uara
NH
▁געווען
gje
dian
HU
cimento
maj
quer
dua
keskus
nieku
ald
stran
lite
ktor
sai
penda
kovi
cura
/2016
igis
:31
jala
owanych
nuo
iseen
forma
seb
▁חשוב
llista
ddy
aquest
terapi
rag
ijs
dite
ember
oq
jd
scheid
ifi
markt
coli
nius
zina
lije
huset
qan
sada
ciji
valu
3-
DL
grund
▁ספר
abili
FC
kiri
vina
enci
ניות
wier
Pu
לות
lever
dili
ELE
inan
Fo
:27
benar
mere
▁החל
rge
kamp
att
meli
abad
partner
bora
▁באופן
gali
ated
maat
erings
luq
▁באַ
toni
פא
roll
mbro
▁לס
sic
(1)
wl
sikt
▁כאשר
cn
IMA
ncy
labor
mpah
enze
anca
eder
ango
lte
vind
geri
AV
istoj
cket
▁שע
tionem
elem
דור
tko
rahan
eniem
arse
oms
ics
bund
kusi
kih
ndus
0,00
ake
radh
altra
▁הספר
jene
lm
את
zad
moni
gari
-25
js
ribu
:26
SKA
rast
ible
PDF
AF
iyar
:28
quin
uden
bata
sens
meld
tione
בור
טן
ujem
kler
loop
leh
:02
tuksen
umas
unga
field
DP
larida
▁מער
janje
rop
bai
vida
yana
staty
▁ולה
torii
puk
EF
dium
▁בבית
IKA
KT
tap
ashi
tgan
pita
ambi
Tra
lac
inius
lishi
doj
Va
tuse
:55
0000
sjonen
Ajuntament
lif
ear
hov
uten
eiras
lici
schap
klik
kten
חות
Par
kja
atio
tato
ווה
achd
chas
ajan
stic
mili
quis
.3.
tad
מא
:03
mn
לע
ativ
thai
avoir
MEN
▁אתם
▁בישראל
malt
gera
versa
autor
▁מק
palvelu
KK
NP
zien
leta
amus
At
uese
nada
tvi
sara
liti
ebi
tour
room
ilmesi
Dr
atha
▁שנה
TB
lke
fang
vra
eyn
hul
oria
mizi
fod
programm
elis
duo
/08
▁האי
TR
ccio
AYA
uses
▁קיין
manna
cido
dono
maga
gono
רצ
garri
עט
xt
OC
ref
tral
meter
%,
alne
pack
פה
ilir
RAS
ayaa
ayotgan
rr
ניק
thy
erii
nku
nky
qar
cili
ojo
tamente
5000
▁באמצעות
:29
כנס
▁חיים
edig
דו
ײַ
וש
bada
iat
inten
olta
oca
asca
▁פשוט
SEN
rog
neho
tni
nse
unter
ינה
mmin
dzenia
zak
Pi
TEL
fet
ized
kohta
▁צריך
umba
unni
גה
▁ועוד
riga
▁דר
segu
veld
arii
ief
.4.
Sam
wedd
slav
stab
pea
hom
hos
Kon
avais
home
4)
moqda
HR
▁שא
▁ביי
wane
ighed
czek
Is
kseen
easca
xar
tora
xta
טור
leb
Men
itta
ALE
שט
pik
vim
yna
jit
tige
kio
doc
csi
TK
iae
tien
אָר
אָ
clu
עי
waar
uca
trop
abh
file
lasi
oth
IF
rage
][
kogu
nali
hap
lino
IB
ndri
sive
imme
skole
:32
hall
ויות
lita
LAN
ivas
obi
tras
kru
FE
tip
zda
קים
ukka
llet
nais
kana
gata
center
ERE
eran
ASA
bera
▁קר
FF
iniz
RL
nant
faq
menu
trans
beste
Fe
jedno
uke
RAN
ids
itar
:34
nout
VEN
:37
agit
melding
itsi
Mer
atlan
sip
/2012
sional
rbi
כים
lling
soo
tsiooni
Det
ratu
govor
lanma
till
yp
Har
lingen
2004
damente
PER
rato
hong
achta
ever
oru
aktiv
mov
jera
yta
זי
Web
cita
poru
TAL
lji
ration
SL
Hu
termin
yah
olt
sina
vale
rst
sider
real
meri
OO
goo
sque
ots
tuta
ikki
interno
idea
lant
div
etes
vant
:09
jang
xia
logi
upa
▁מב
ory
יהם
LD
gaard
ורים
parte
ymi
כנ
בע
bez
▁וועט
lande
avu
tini
rody
▁דרך
tyn
forum
▁תו
>>
person
dine
▁מידע
core
yat
luar
רון
uq
jsko
boy
ures
setning
quo
spill
ICA
חל
gran
ETA
דים
vak
TF
dors
nuti
▁אמר
aju
hani
-22
his
ities
REN
noma
rvi
vada
scen
................
רח
lder
lez
tier
:33
xes
gga
diri
וך
balik
mittel
▁אדם
pura
DM
של
head
ONE
cyjne
TES
gadh
▁הצ
culo
erin
sign
skich
middel
lde
liselt
sjoner
tuz
IG
Read
lud
▁תק
icamente
aciones
show
EI
pte
tumia
varo
opa
gj
krit
-12-
nale
jela
jazd
jav
eye
ּ
manda
San
tk
▁אותה
kredit
motiv
cana
information
zis
mali
ongo
ימה
isasi
wag
kay
muz
aith
tische
pom
lmaz
eto
חשב
Qu
terna
asjon
tisch
ror
cet
kada
zug
יצ
OM
mers
mpel
iah
prava
tory
rios
txa
mok
atkan
dau
rec
:53
bala
nzi
batan
moc
OV
mobil
ICE
bach
txo
eten
kannya
dli
reich
fas
bele
bey
▁בעל
iyey
artha
titi
tegi
tinen
My
hta
RK
elm
iais
ihii
cijos
czny
fis
MER
Sp
volle
sey
sker
holder
oita
kkaa
lha
:41
vola
gay
bong
veg
ront
Allah
atzeko
vla
slo
script
Por
fia
nten
ovania
stos
▁פר
arre
yya
mjer
osh
talet
rava
free
2005
יף
hub
plus
yty
ckt
dv
kuntza
guard
avan
menta
mele
lato
oya
did
)))
etara
term
best
arkan
acije
חה
yz
aali
2019
raya
teh
רס
NYA
ierte
hkan
prat
aquesta
voz
YO
czu
bula
struk
ajat
cord
KY
gericht
tw
jme
esto
hri
tuur
wid
ifa
מצא
splan
gaz
facebook
hia
arti
UB
/7
ujejo
aggio
corre
ece
viet
RIA
tijd
lane
ONG
ymas
rock
zit
gled
rice
guer
kide
▁מצ
osos
mete
ijas
pont
world
MC
GP
שות
▁בד
▁חדש
undang
▁אפ
tunut
OU
vani
kere
ukai
rga
▁מג
ציה
nski
wij
:07
trze
klaus
yak
:44
misi
leik
diyi
rud
adii
iyada
nari
heng
iston
mies
bela
Kar
kond
dab
sari
tres
lege
iona
ליך
mbah
▁כולל
LV
אני
serie
agrada
lc
schau
zur
emia
........
▁טע
saa
▁פא
amiento
:46
enzi
iff
zzi
ISI
:36
iOS
חי
niti
rzu
big
Foto
=1
roga
kona
jut
stavlja
ICO
altro
פתח
telli
buch
טים
hing
pora
ENA
laid
davo
xis
ונ
qat
Italia
rych
esso
iller
nei
Pri
kili
:06
ovu
normal
Cu
kter
ינים
Ber
dno
vide
JI
mple
:43
deg
gare
פן
bali
tola
tiden
VER
NU
shwa
:04
runt
!!!!!
trin
leid
zol
viv
▁וגם
lala
ואר
kosten
teet
kend
ongan
ilia
/2011
ranje
▁חו
tale
buka
vka
UI
kais
▁מכ
cate
Nya
tief
masing
דת
-24
iyle
llisesti
dende
:42
בת
avad
emp
tett
pop
tering
chilik
:47
rep
:58
wet
izo
eeritud
chter
▁המש
ktion
ife
ljeni
cine
ishga
sert
zt
MET
hina
amat
fah
▁עבודה
cri
igheid
רט
▁טו
valla
urre
antar
ager
woord
used
III
owaniu
antis
rv
prze
ush
nding
rida
pje
geni
mester
andin
shan
וּ
ledning
tky
dienst
weis
MENT
rwydd
iers
kake
folk
legen
final
cup
eho
:52
driv
▁האתר
nz
tjie
▁גי
rilor
bec
aient
wiktionary
mila
lings
nicy
nod
ANT
hag
junk
ujete
AE
uhu
cami
dava
yy
▁אנשים
nila
phy
xer
alkan
▁בלי
▁גל
טו
schutz
gah
▁אויך
etaan
Dan
izma
365
kunde
Em
bd
vah
GS
stone
masi
nade
:38
ֶ
design
dies
lda
temp
tiem
ppo
lova
lighet
vine
OST
/10/
cera
terra
llan
saky
ombo
nko
אם
KER
fle
/06
pila
וצ
rys
haa
kimi
UND
RY
hane
..!!
arios
:54
endra
PD
kau
kak
hrad
PN
lando
RES
legg
ORA
001
▁אור
porta
mda
2003
atti
skriv
jske
uun
▁להם
vila
יסט
tawa
▁בס
:39
:56
אב
סטר
▁רוצה
reje
scribe
:48
dens
chem
tvr
▁שלכם
vz
our
eleza
deli
leti
▁רי
abe
▁גדול
IAN
lean
cell
[/
dja
kto
down
▁האו
צל
wend
loos
minu
polis
efni
ybos
inho
iler
▁וואָס
pam
autre
iseksi
haj
zott
koj
cere
ograf
tavat
bid
iol
OZ
stas
/2010
:08
cati
fung
isuus
ANDA
nija
ikal
laget
kket
אק
vili
estre
▁החברה
ngga
yasi
RAT
styrelsen
roni
MG
raad
cl
stov
szor
vado
gian
tingu
nahme
meg
ringen
ייַ
????
סל
101
tando
asse
enge
ents
kost
beh
Dit
sloven
Facebook
mite
heen
istan
roq
fly
elige
ktan
rong
kkan
▁אותם
erit
lug
iec
:49
prim
דער
tli
gesteld
TION
tano
hali
kazi
jeve
vec
vald
pele
etin
fta
meta
laan
▁רבי
rico
vom
game
etek
:57
izare
cinta
lil
leni
punt
bita
tettiin
mentos
mama
zing
מח
kje
undan
boek
tamine
hes
watch
haha
SAN
yv
riti
zini
maha
publik
guru
town
דן
cens
Ter
minister
ziv
esha
fum
agan
liai
biera
ITI
▁כתב
tende
kowe
saka
mac
mpre
here
ענט
ziona
IST
bris
now
teil
amy
zuje
vica
oza
tke
atul
hlu
biri
print
tiu
visa
trum
▁לקבל
wart
biti
nicu
broj
angka
zno
lagen
ATE
4-
esen
istus
קבל
nung
iselle
ymo
titude
RAM
xin
song
haf
▁אף
rink
valitsus
zija
mio
erie
sav
dato
kust
jno
tuan
VR
nato
iPhone
iros
gub
kid
idir
gama
ular
iranja
AGA
hald
goed
endus
itudine
bane
ijoje
hend
likult
lagan
110
vyo
rimin
7)
cident
-11-
kret
cki
danie
CN
isku
Wi
likum
enter
ustus
shq
glie
waan
▁העיר
tiya
irim
mpia
rine
TAS
istik
ilib
nij
dza
thar
liye
Via
cini
NC
ISA
מס
ocht
prop
dej
embre
laha
NES
▁אַז
שע
quet
uci
cych
BY
fli
ndet
lighed
tella
FS
posto
opo
villa
סע
slov
cata
urg
water
vira
rank
SB
חים
ulis
IDE
CM
bilidade
cant
maak
oista
bouw
riu
ew
amma
ordning
ibili
ustu
shu
HP
3000
וט
madan
lsen
mpo
Vo
ORD
uwe
mpf
gging
vast
liwa
veik
יפה
▁האבן
sdag
lette
blick
struct
צא
cookies
indo
ppel
icu
ety
abu
▁אתר
lki
cznego
nsko
isma
ccia
job
sant
tiques
jeg
stof
rey
▁מקום
mbol
▁אלו
tron
aron
mind
ilah
פֿ
eringen
▁מקור
otu
rave
azio
damas
raba
עק
tzaile
▁אויס
AAN
itin
pole
isella
shay
empi
UE
selskap
עוד
TRA
▁המשפט
letni
ttua
zona
tutako
mem
TAR
pote
LM
-03-
cyjnych
▁תגובה
ligini
metro
ieri
dada
▁גו
komen
aris
ukat
holde
inum
czenia
rand
ukas
stell
++
adresse
ivu
▁יהיה
nieks
cznych
kni
wd
eil
MT
iten
roka
GT
sua
160
ווע
rebbe
LP
lett
mbak
:51
dent
base
trag
itve
ander
zioa
edo
etus
JU
tici
mea
St
שם
rki
CL
sters
0.00
ced
antur
cun
niji
ettu
rno
▁פעם
vum
-23
pili
disk
quel
ntur
▁פו
wek
klop
raan
kate
ACH
verse
hlas
RR
alin
visi
slut
essen
zte
korra
lico
▁דורך
Gi
schrift
elin
midler
▁רבים
voja
eda
ucht
kvi
▁האָט
jezd
gim
tely
And
uba
zional
azi
ooyinka
hak
body
Gra
rve
tuak
imizin
nesi
rce
isu
▁עמ
image
fana
kiisa
cta
tasi
Book
lna
iens
ssing
taminen
bhair
bana
קת
edel
kontakt
רד
ljivo
aldia
jka
oku
jati
▁שכ
BR
lare
Auto
-09-
emu
HS
fak
lein
dw
zig
leva
oil
undi
shirt
adka
UF
▁הז
umiem
tym
orden
360
onder
gru
קן
satz
bereich
ganda
BL
rons
OB
kuma
sikan
xir
▁בק
sioni
heter
baran
.9.
cado
weni
yra
ixi
imos
raha
umus
wei
elta
SF
LED
ttava
vii
uvchi
rete
enka
weza
tanda
chung
radio
aram
chia
ימות
▁שאני
ild
▁בג
hav
bant
point
usan
dog
marka
saf
jaar
bly
spek
eign
ying
cznej
endur
tzi
jenje
larining
בות
TAN
שק
uak
IH
prast
▁ווען
ייט
nker
bour
kava
qq
omat
uki
efter
brug
AKA
ֵ
doo
oren
jeva
LAT
sila
atok
vete
rde
dzenie
zela
03.
uman
nok
ipu
RP
ונית
verket
meyi
nare
lian
TN
uno
2001
ensi
"?
ksen
glo
Kom
SR
inc
kota
vaja
AO
stry
lele
cente
card
telefon
cano
gile
firm
problem
voc
WI
ader
patr
gehen
pk
DF
ktu
hlo
END
GEN
kati
jedni
Op
bhi
ILA
ener
lendir
אָל
arki
NL
kne
-2016
lerimiz
read
vene
onis
preis
ceni
liya
mynd
App
tual
ismus
dna
yda
sian
תר
sjons
כר
jf
etud
send
זע
jed
LG
awi
imen
richt
קע
profit
akt
ליי
ellen
duc
enje
self
cej
▁עי
ziale
igita
gini
ljub
ondo
180
owski
▁שוין
mpar
Ac
ML
DB
apan
fast
גול
▁האב
mato
jena
glu
cznym
ShareAlike
[2]
pf
Ak
ovati
bija
tyd
hua
.11.20
ngan
kaup
server
tulo
stes
dex
ndro
ior
bati
KB
scar
ranta
▁אויב
zom
sec
liter
versi
eros
tojen
tning
zwe
liber
04.
cce
material
shte
skor
hdy
▁ואת
krzy
oties
SKI
bahan
ONA
leyen
risti
uge
qin
trac
liza
zobraz
brani
▁פרי
gruppen
rare
kset
3/
uyor
▁אלה
allah
trof
אַט
organisation
mble
▁געשריבן
hesh
inici
sicht
iar
teiden
klu
/2009
biy
malar
same
-35
rlar
ולה
dong
elim
igne
mbung
spil
sidan
szik
boli
loh
jis
host
baz
bbe
position
jna
rott
ivos
inig
tych
gung
כס
ify
jave
igung
face
akat
lede
itzen
CIA
lera
meti
lado
tone
stwa
גור
rija
ison
▁בדרך
bida
isesta
▁הרי
▁למה
Saya
▁אום
mita
sberg
iladi
ורי
vija
MAS
tegn
szk
▁איבער
Ci
ugi
scher
kasta
APP
etatik
ישע
itia
VN
ION
שו
TRO
saan
tzat
ezh
holt
pela
RD
gom
bring
sole
▁נגד
hada
Sha
yli
vidi
vido
dangan
skr
vern
onto
drift
-04-
/11/
rito
zos
ardi
Sh
tust
api
code
kva
כט
pendi
pto
kwe
style
(2)
EV
ulat
audi
ADI
pera
enca
ctu
wig
DVD
haya
strategi
▁אבער
arin
DT
rias
vise
dud
lema
▁לג
ick
EJ
RET
rona
wil
gust
ainen
czki
club
Bir
ability
okon
sept
VP
tips
tzer
sels
tetty
tyki
bantu
pore
aidd
PF
ification
pana
ngar
station
UU
cking
inos
▁הפר
ikh
fred
aanka
duse
graph
שוב
ADO
asis
verti
ingin
skydd
raja
ndal
entia
TL
quot
irin
גים
REA
cek
rman
novi
rash
rick
rige
ccions
▁מלא
▁נוספים
▁במקום
niej
llow
aide
gangs
mper
liko
each
janja
papa
ינט
(1
▁דף
terne
amas
okban
2002
tics
סו
misest
vri
etu
drom
enek
premi
ferm
werking
וד
Que
prend
-40
xwe
tensi
raka
alia
▁פּ
bygg
jaga
masa
czyn
lyg
stoff
sci
visning
irani
\
zky
GH
ntang
FOTO
khulu
skai
hej
kaya
tiek
bom
haal
tiche
ernes
tryk
ttet
yama
dalen
gong
fald
arvo
ierten
▁לר
BAN
dung
ניה
הן
glav
china
gard
uddin
anam
dyti
USA
bler
frei
▁נת
gate
laiset
▁אותי
ירות
sigur
ebilirsiniz
ציע
sons
-50
oper
invest
likuwa
Os
סת
Val
azo
UZ
thro
tibus
grafi
rasa
amin
rait
skrif
IRA
amour
▁דין
tium
Sta
ince
OG
▁מתוך
פק
mysl
נון
made
toka
atay
erung
plin
lls
dila
misega
rano
identifi
ujo
prem
▁ניט
▁שימוש
gave
tinis
lleen
araha
stant
▁קען
raga
ington
LIK
▁פֿ
imis
zah
Ek
objectiu
ENS
takan
nemu
zenie
cciones
ותו
dub
KL
Tur
sher
חור
zku
agar
specta
ITO
nist
יפ
eru
leika
culos
nehmen
ekben
linn
tuna
oki
paz
OLA
pero
fold
robi
wers
ikas
tynyt
1.5
liau
reis
jien
teks
XX
bhar
plaats
"...
pula
</
oksen
abilirsiniz
tuhan
rca
▁הכ
▁הראשון
hogy
tives
tany
YT
oks
ennus
***
seri
▁מד
gyven
ovanja
וק
DY
lased
rima
hev
hdi
jara
▁בנושא
leht
syk
ners
ografia
ענ
heti
bav
▁חדשות
ventur
posti
LK
170
rust
cela
standen
ndang
mone
brand
onia
tira
tris
ordina
onat
iunea
GAR
tional
ingan
5)
baya
ANO
gii
HAT
eita
Windows
tikus
ISS
tatea
ldu
ensis
osto
ysty
בול
CT
baki
ool
▁בעלי
kontroll
txe
organ
▁בל
some
jete
▁בעולם
rono
elek
meno
SV
Sport
All
dania
udio
▁ילדים
itzar
izarea
matik
▁איינגעשריבע
geb
sud
sses
GU
אה
atore
ranja
lati
mei
-02-
stit
cante
gacha
▁שט
.6.
▁חברת
aalse
100%
bito
mach
inimas
itte
nast
▁העולם
▁בחו
Tech
usten
OD
yahoo
teja
sag
WO
tyr
ull
xen
ester
jele
▁דיין
halten
STE
reti
▁הט
▁שלה
sand
xxx
rino
htu
140
andika
ardo
beg
anyag
ody
130
festival
odu
jskih
iru
johtaja
rene
lagi
roda
struktur
DAN
skip
-06-
kamera
kiel
▁אפילו
Star
▁מול
IVA
▁הייתה
107
itto
itel
cto
/16
geben
קרים
gula
wiz
AKO
adura
livet
/09/
ncias
מית
grade
mping
flex
inus
goj
▁שלהם
muo
dici
יקה
taire
huone
ryn
aigua
team
fik
icht
▁אבי
vizi
Dis
▁אנ
hood
לער
pida
marin
tyy
prima
evo
dning
tile
fed
/12/
illas
OA
torul
yur
ury
oknak
MD
haft
leriyle
viti
ipi
ieron
unge
spi
ביל
taki
oissa
ימים
action
Biz
rudi
.[2]
wick
-07-
cios
kamer
quant
eann
inizi
cir
לעך
szem
reise
shik
atoare
fekt
ajte
deel
jil
Inter
▁מן
Kur
skat
/15
cena
cione
amerika
sigt
mpu
-2015
zani
muka
▁נא
cino
fare
laste
vera
tamaan
trakt
daya
tapa
plex
inq
llos
atud
lost
ative
AND
itati
ndis
izat
gani
cium
RON
▁אתרים
לית
edit
tune
zanie
gegeven
oby
onin
ibo
issima
LING
palli
rovna
350
ofer
EMA
RB
wanie
miss
zysk
blik
ljeno
tzera
mile
sman
hva
KG
status
andu
eeyay
▁העל
pid
vun
▁בלבד
icky
וֹ
/18
fera
mare
kong
lci
sika
▁מנת
otti
agra
shish
▁לדעת
soci
bba
jima
oce
katan
paikka
lacht
lko
wania
atto
lili
DK
gruppe
Av
nett
lion
▁סו
zane
▁פע
▁משרד
lumotlar
laista
deling
hadi
aasta
loven
toare
lendi
URA
nique
loge
pse
יני
lno
tla
רא
dui
יץ
credit
rendszer
mant
-01-
zele
eter
njak
uota
Ph
ujemo
fro
telu
IJA
cea
▁למצוא
zania
▁שונים
come
ucci
בית
ovom
dova
kene
onym
mendi
laat
uksessa
iyyat
2/
lwa
ilin
store
▁הד
illi
▁תש
/01/
riak
delt
fico
erde
escola
baan
DEN
eca
stroj
ifu
olle
-100
sap
kuja
sats
afa
kolo
Ben
kini
lichkeit
ampi
jani
▁כלל
.5.
RIS
UTC
[5]
cient
bic
attu
weise
zwi
qul
mico
ciem
דות
zung
▁ירושלים
ssy
▁קרי
סן
oitu
ילים
nav
bron
lann
rufen
ctum
hami
בד
rimi
color
ilio
platz
isessa
spir
diti
bine
zaj
nili
arne
linna
laden
magan
הר
novo
rando
stelle
typ
/07/
haan
FR
dist
rinta
bilis
fter
inform
kcja
[...]
wagen
חיל
version
pali
forening
jame
keen
zuk
ttle
UMA
navn
ater
icas
tuva
▁שפּיל
YE
quia
koon
זו
Ob
exe
lete
gano
URI
imui
oiden
ught
תן
dale
טיק
tih
jast
ERI
styr
New
ried
zima
ndam
פיל
oldal
HM
▁וכ
עם
ikko
▁באר
lopp
koko
LIN
rip
lako
inf
bka
reo
אס
pani
▁פל
tub
105
tallet
Mon
trat
גיע
hetetlen
מער
dring
bern
tirish
adora
LAS
▁טר
MN
zga
metra
enc
tail
bilder
▁ממ
10%
GG
IJ
ndur
ober
sore
year
jp
ניים
cole
dlu
gent
rings
buri
itats
ttavat
vall
▁מל
resti
voer
cele
werp
אפשר
ruga
garria
centr
roman
saya
joj
komp
giu
ukseen
ttes
irana
ORI
קא
tame
dut
ache
act
sif
▁איי
weit
קש
ilise
ucu
LAH
daten
lmas
ilis
sende
pito
lisa
diagnos
pec
khu
scrip
volta
mans
ART
LES
anni
regel
matic
uwa
vieto
kent
AMI
uksista
VS
bete
LEN
acqua
vle
how
tahan
gry
veli
enten
הוד
puesto
ieji
CB
zhi
girl
ified
ruf
master
cultura
בט
mane
אַן
-08-
PK
▁בתחום
}}
spiller
lhe
word
agh
xos
sburg
...(
week
▁אולי
rub
blu
50%
anlar
ainak
technik
LOG
MAT
issimo
chel
LARI
נדל
rinn
llon
▁שח
▁זאל
ruz
VM
saker
spr
iker
ירים
▁הן
lehti
cito
linta
loo
Ap
AVA
ization
stadt
rku
וא
esten
Der
FU
שור
enses
gili
ncang
eeyey
▁תמיד
berri
wasan
AWA
▁אן
▁עכשיו
lott
KM
fyn
MK
faa
ppar
ovalo
KEN
וף
ival
יבות
cru
gumu
deb
cot
ottam
▁אב
cite
alom
PRO
ycznych
▁חדר
tomi
AIN
Ich
yh
lashtirish
lykke
voir
IEN
lul
prost
ovana
db
aikan
LB
▁וח
▁וועלט
11)
raum
llit
ded
eanna
TOS
spur
ensemble
alto
schi
doras
bene
maid
fyll
nelle
werken
dice
lava
klet
istic
טש
dire
ENG
▁מעל
genera
alter
matta
alma
randa
lamak
nac
fini
jy
Ze
RED
liu
ארג
▁אינו
rila
note
עז
lised
hro
oly
barn
pped
1.2
kna
/04/
unud
2.5
sluit
knak
ekli
forme
itatem
acje
vlja
pression
graphic
portal
enberg
tiku
tvar
▁רא
znak
ayay
meen
uudesta
heder
plant
jul
lb
isho
koulu
stem
hei
-28
lmi
▁ביום
HL
nizi
skola
cah
altres
thair
kako
utin
123
alda
curs
vatel
ireann
ipe
CU
lgi
▁סט
stum
middag
vaka
school
umbu
Ur
chos
DV
sehen
uria
ראַ
qish
כב
ANS
sein
▁שעות
arbeiten
ngkap
RG
nnut
laridan
muse
utilisation
stern
dry
CHE
vorm
koja
nagar
oid
אַנ
erako
NIK
energia
shiriki
ERO
urat
kone
AST
BD
רג
voll
telja
geld
regi
נען
▁ועל
praw
strup
uce
tros
bik
duh
AIS
samt
hist
ABA
siyasi
ctic
male
icus
iscono
orient
102
lumot
kolwiek
digt
Ce
bulo
נן
kooda
fot
uesit
accueil
ambo
kowa
nggu
tamise
zare
▁מנהל
סר
falls
abord
kung
NB
axe
hets
lanadi
tokea
bac
ips
עלות
ilma
plik
oittaa
staat
unii
yfik
2020
Post
gde
iris
varu
▁לראות
ARD
rasi
vies
rnos
yib
▁נאך
gati
UC
▁לפ
uts
vao
888
komu
univers
tojn
food
youtube
kert
ritu
tiile
rda
ִ
laik
inizio
jk
ulle
▁היי
erto
paka
inys
meer
gha
yf
utas
moto
kv
ljena
kele
tott
kud
iling
wari
▁ראשון
GR
modern
sou
keer
diya
konda
ggen
יום
entreprise
dhur
auti
bier
teis
wordpress
ROS
aki
Europa
defini
▁הער
▁אחרים
▁זייער
Bra
yczne
basa
iile
treten
upe
jaan
jir
chwa
▁להגיע
meyen
kazuje
▁הזמן
vrat
angal
anu
פני
tau
▁מדובר
vni
vl
kraj
stjerne
▁מכל
kuje
zva
sab
interes
neen
▁הל
SER
/05
otra
עור
nier
ekre
atlar
alai
Kan
orra
miyor
issime
rain
10)
דזש
sprechen
ryk
tanut
ueshme
tolewa
izen
chow
Pra
czka
lela
fina
uoto
EGA
ady
erande
czej
tapi
ovun
amini
ektor
lazi
STO
lliset
1/
sela
segur
/13
zati
kee
RN
itelj
tojo
stica
8)
ferd
tusta
faj
kunna
▁מפ
SKO
▁שירות
ungi
lenen
rsat
רגש
CHI
reita
ומי
hiri
Nor
זכר
Mul
dhar
arrak
jou
lahan
tist
tran
dec
oire
hale
roh
stret
hman
alue
lend
7-
wind
נטי
thon
liegen
voima
zip
mano
roma
▁ות
לד
נר
▁בתי
xy
Cor
ivanje
asikan
neu
ahay
force
קול
ljiva
lel
lser
atis
▁מנ
ires
kw
type
-27
FP
tukset
fach
").
▁הגדול
CHA
ibe
kav
uotas
▁החדש
hah
vende
loma
gner
kera
ellinen
עים
budowa
puri
blogg
כא
stid
hver
tena
צים
OY
▁הזכויות
izada
fanyika
20%
wijk
AJA
▁סרט
▁נאר
▁אצל
ikku
jau
jl
ikk
rmasjonskapsler
▁נח
-26
apkan
Chi
loni
azioa
zle
irano
)(
kalo
kn
illes
סה
staviti
VEL
▁רוב
ange
qqa
jmy
adaha
acijos
toimi
ouse
URU
paik
ambito
ljiv
issement
hehe
liet
lassen
tso
group
konferenc
biya
klub
▁לנ
preci
uomo
moz
׳
▁מערכת
rial
arri
utilizzo
ungu
jalan
lti
Tak
gebied
hh
nieki
tangaza
DN
EH
▁קענען
lone
trzyma
lija
haz
ivan
mpion
horn
richten
kela
AY
BRE
מען
Qa
format
vela
model
לון
reza
oder
tatu
zicht
psy
eiden
pica
koni
paus
andro
lusi
lief
▁החיים
laisia
fam
zeug
vero
visor
chodzi
▁בשנת
toe
▁שתי
fei
eknek
setzen
▁תוך
szak
alat
VU
▁אלע
רשת
iyoruz
laku
espera
FO
▁לכ
istisk
bral
OUT
MR
UNA
sare
ised
ahu
plas
AHA
onal
▁קול
luc
odpowiedni
anima
ILE
ismi
vky
hung
ident
meister
takuwa
WS
puu
grav
ites
laza
eso
szcza
.8.
lnik
registra
slagen
CZ
xx
What
zta
wald
hv
▁עיצוב
Eu
-05-
gesetzt
messe
wezi
automat
flo
יפו
tsin
1998
uld
personal
poko
kkaan
steen
tilgan
tach
ifikasi
ages
vku
ntia
ימ
grup
-10-
gid
stiti
bawi
▁משהו
LOR
HK
shta
ירן
cci
sura
jimo
road
khi
rike
▁קוד
como
gredi
studio
qda
antaj
icum
ICI
asema
yddol
tanud
קרה
ailleurs
BT
[6]
nicima
▁דעת
llin
lange
ininkai
plica
kalan
צת
BN
atif
uosi
schein
stina
cali
Sal
LIG
mental
stelu
nefnd
andra
csa
izer
anche
ledi
ladh
xel
lium
KIN
kooli
denken
bond
PG
szczy
lind
vaj
chef
NER
starf
gezet
lenme
rost
offer
uzu
▁שהם
usia
▁מדי
UG
ubah
taba
meden
▁דקות
ceri
veti
leben
Mas
orde
adar
llum
▁לצ
uring
.........
▁הזו
▁שוב
szych
entra
siai
riet
pite
bidea
acions
aggi
רכי
BRA
ovan
yaya
ipa
qaad
nium
llahu
siyle
einek
hitaji
adress
Up
naam
metr
EY
atsiooni
mayan
jumiem
oci
rummet
dita
erland
ulin
nr
LAND
ilte
liklar
equip
demokra
ape
etas
eixen
/14
tused
spot
ntana
▁להי
organiz
▁השני
ערן
rette
rova
ohjelma
igan
zij
יבה
rini
mentar
yba
pras
Ang
:-)
.7.
xas
diel
padu
מור
rnar
▁באי
tyczne
vega
obre
ebe
ulia
tyk
צבע
ainn
izam
berry
akkan
greb
▁הסי
keli
ranga
ELI
MIS
OJ
vart
esebb
vut
gangen
dyr
kori
ונת
qet
▁שהיא
Ol
varer
ayi
קד
landet
▁אזוי
tsioon
roep
ogi
jalla
skrifter
seniz
maja
:0
ecta
▁יי
INO
kool
medel
מנו
WAN
koliv
▁ועד
you
▁בארץ
rantz
xim
vv
QUE
niejsze
sset
beeld
ORE
ombe
aliment
wacht
TX
dust
XI
trem
SET
makan
Mag
stillinger
uuden
lge
aban
106
rl
▁השי
ponent
heli
amaz
kuk
▁איש
mura
BlogThis
ירט
tritt
vaid
mint
svet
▁בהם
PH
ײ
ffel
jant
vima
fahrt
glob
dades
sof
lyst
zada
statud
garan
anc
owymi
stofnun
שב
azienda
night
stot
dba
lieb
KAT
ulit
zionale
exist
mla
▁המס
noc
cioni
TIN
pirenena
uksesta
mendu
Ag
laug
tilbud
oris
rali
-2012
▁מחיר
zimi
boo
IU
Den
OTA
kalla
cym
tren
tsen
quv
inge
▁לגבי
asha
nchi
spira
yol
נז
alde
tiske
uudet
plet
הל
אז
Reg
ssu
RF
ivit
wajib
elio
▁הבא
ddu
roi
+2
suu
ndre
asiya
▁יהודי
islam
md
archi
Can
pou
קוד
shing
ובה
schluss
afrika
yst
vici
ilan
▁דע
laydi
onne
(2
marca
ESA
&#
▁באמת
goda
habi
vac
lijke
szym
rella
inski
funk
handling
tures
puta
neem
missions
lemek
new
tela
egli
mela
fug
[3]
right
geng
OW
album
warte
ischer
▁במהלך
fahren
orta
dito
loc
רוק
Quran
syen
tham
12)
iones
gels
laim
ATU
▁והוא
1999
jero
ribus
▁הארץ
anoj
prie
eille
wende
sland
oana
▁זע
present
truk
ickej
=2
legar
lemez
mannen
tian
rados
ixe
Para
saidia
ixa
tagelse
fram
amine
oihin
EEN
sible
onego
eink
Home
hind
ensa
Estat
chie
ULA
nikom
5-
volg
Mac
ראו
dico
tona
poz
maker
---
Tr
dovolj
accord
telj
▁מצב
gale
▁טיפול
ruan
onda
virk
nton
דל
two
▁נראה
kait
50,000
joitus
ljenje
insa
1997
ovna
spetto
market
kontrol
dani
covi
-01
Mus
ESTA
arsa
לילה
trau
חנות
ysa
loha
embe
lol
Ali
▁מסו
[9]
cast
dood
schop
lozi
tref
rupa
iras
kush
KP
TON
ikum
qon
בנה
chal
פע
kani
kassa
tuh
quina
usse
technic
linge
grado
make
OLO
▁שמורות
▁תר
▁שזה
tette
fix
twitter
Pan
tlen
cid
lenie
ולי
plic
loka
ווא
Mal
פעיל
siu
ITU
veis
▁מז
terior
ELL
מין
kua
tionis
fes
bras
▁תודה
";
giri
tume
puh
parta
צט
▁פאַר
piste
doma
isiert
gatan
stavljen
rusi
rry
foje
lux
kauden
occasion
laina
ERT
hulu
OI
fice
tiska
miseksi
schlag
NAS
כנים
dokument
nemer
emme
VC
steuer
geha
pret
zera
CG
craft
enz
jahr
ודה
avana
likud
הם
mhar
valda
ilay
pier
dating
tohet
Alba
vt
sisi
bost
jami
unuz
ntys
▁קשה
czone
TRE
ידו
della
OH
zony
GER
taget
torilor
bred
ozott
rici
ezko
18)
izmus
rest
harra
thal
osas
סים
fari
redo
בש
VIN
czego
viin
ndaki
AJI
TZ
uutta
urdu
vard
lier
Ah
histoire
elas
biga
diu
Report
bolag
munt
...[
sure
nami
arm
BP
KR
זן
distan
vog
Oh
qal
sier
שאר
nosi
riez
robe
TUR
GM
JEN
licht
zli
fran
▁שלום
-29
zorg
luse
jina
izzato
opi
avanje
tuin
!).
Porn
tieto
imine
/2008
pc
zava
oan
/17
inimo
Wir
▁עליו
skelb
▁בט
lopen
jedi
EVA
▁עצמו
araka
aniu
OVA
DAR
lezi
vention
-2014
szel
njena
navyo
oitus
טאַ
tiny
zahl
akin
bhe
pira
בסיס
/2007
wijs
born
LINE
krij
gst
▁ווא
sager
ingas
fell
contra
▁שבע
▁עדיין
pugna
Institut
deild
כול
dden
klasse
cure
itik
qay
fant
fie
cenia
****
laisen
bini
jalo
reak
sarja
▁בכלל
photo
polo
enburg
נצ
daw
1,5
evole
leven
lysning
▁משה
nina
IKE
hita
sist
kawa
rwy
gebiet
legging
rime
gelegt
mora
tionibus
TUS
▁רכב
iraju
entzat
risk
hodno
social
negara
ZU
mbur
azh
ndosi
idio
PB
lation
kst
product
vaiht
ovski
lani
irala
blon
▁גיל
ILL
Android
▁דברים
linda
jua
fti
public
cale
▁האָבן
Pod
wych
lauf
coj
AZI
ANTA
עו
hop
banyak
▁קצת
▁השנה
lacions
stve
koma
usega
IKI
מנה
750
mpang
zaro
pens
mbuh
gona
mee
handa
ljivi
ppet
rakan
hanga
loq
ometri
menin
pung
fiz
itatis
annu
rawat
Part
ISO
dach
uwen
Wo
emploi
rell
ienne
dona
ultimo
▁כפי
risida
baig
ebuah
analyse
dant
nota
גישה
sali
tyka
skipti
obo
orem
penzi
profil
izzare
tuig
asje
case
hamba
kerfi
bhu
primi
ndada
askan
strand
presa
cris
LF
viden
Ai
jale
alit
ettiin
ilija
▁קור
▁מעט
rodo
skov
arium
atzea
Del
SON
skyld
tista
YN
jies
satte
rbe
skil
קרא
▁העבודה
iui
rifi
▁ידע
BOR
cies
▁נמצא
|
קות
otni
pomen
▁יכולים
tuen
izza
OTO
kasi
ingo
▁יא
mming
sidir
mig
Sen
byr
ffin
comp
tsiya
central
qib
tesi
baru
gleich
xhi
tolo
rise
pozn
fyl
acte
ugh
קייט
skott
ection
koch
APA
gida
gebracht
runa
bido
STRA
sler
hey
dels
groep
czeniu
eadh
Min
bawa
זל
super
▁שבו
posito
tatis
licher
sete
shinda
▁נש
ייד
hoito
athu
ching
pano
nima
nula
בטח
monia
upi
minti
tram
gou
rats
acord
dern
pov
yse
MAR
FM
tova
NAN
ELA
oksi
▁פרטי
masta
shir
unde
arch
Centr
▁בכ
lose
oran
נער
herr
rska
scription
isille
kuri
karta
baik
moon
INT
ordre
wrdd
chov
druck
lanish
kui
גוד
▁רש
trip
orul
open
valta
GAN
ומות
vreme
lona
koha
buh
6)
estudi
terapeut
jere
ENE
tinu
dding
עבד
xistin
▁לבית
17)
unjuk
eline
liek
IMO
trykk
dop
ebat
lines
izmu
vd
BAR
kaart
toire
hvi
kalu
kban
cach
STI
beta
uhkan
dho
crit
google
Non
lugu
uyu
adon
stock
inom
פער
alni
dorf
rur
אַס
copi
tlu
siin
mman
hya
figur
jaus
giver
Port
norm
yay
hee
Air
telt
bby
רוס
1996
llisuus
ongeza
entzia
city
DEM
eling
▁פני
eck
▁אומר
kvalitet
szcze
ETE
bike
UH
tsy
jarige
tva
▁פחות
hyr
nggung
gud
cionado
VV
mentes
sade
njang
sula
samling
izira
cato
isc
munk
import
ules
stift
RJ
imenti
▁יחד
mart
daha
Zi
TET
sinn
tikan
tals
uum
yung
atos
clam
חלק
lager
breyt
sere
source
PAR
likku
ften
450
estro
cyjny
ZER
asto
sivu
-60
ances
auteur
Zo
אחד
▁המי
imba
fej
sako
DIN
stabil
tane
▁חש
porn
cko
ncing
גות
תק
ziya
laz
Yo
emel
odob
nava
ineen
amb
vande
ieni
rren
piga
Don
שום
deks
cious
betaling
ecto
rimo
nette
olin
Hel
rane
naa
ndas
teki
▁חוק
▁סל
kuha
ggan
hhh
pedi
ESTE
hja
WAR
ives
endelea
ouvre
geh
pap
kelijk
ologic
licit
ETI
ONI
koti
tanya
Hy
16)
▁קא
YK
dge
ACE
rande
Das
byte
siti
ambia
ADE
Ein
kiwa
geno
systemet
oaren
tifica
samma
rante
220
shon
pah
ope
ayey
VAL
רשות
990
mekuwa
mode
bam
puluh
daba
iline
produkter
bole
fut
meny
zab
Sc
dome
revolu
fiq
RV
ramai
soft
bn
reb
neri
draug
state
Comparteix
bani
isierung
mede
esz
yaan
גער
vro
פיתוח
ropa
Ik
reik
atko
cykl
NIA
cionar
zw
arg
▁תא
lod
iky
prave
oasa
spite
genommen
SN
פעל
▁נוסף
irao
ROM
MOS
nty
רן
vata
avit
Im
dido
centrum
dict
ologiya
FOR
hela
lucht
lmaydi
milla
בוד
avgift
MUS
eseen
dessous
download
kjen
rese
zeniu
VAR
juht
ordin
scribi
krov
inhos
duga
mira
metri
▁טובה
sabi
fio
HAR
XO
jia
MV
bju
zod
menys
tiq
oxid
oooo
lida
zale
mix
serv
legu
laf
Dar
יוו
IGA
lase
אנט
One
גיש
ודי
▁נכון
ises
issent
▁תי
laman
ngiz
15)
ider
ebla
pravo
tusi
porno
וויי
uris
IKO
alen
deren
huhu
fos
tric
skrib
kowi
pac
cijo
anos
dib
vanie
cala
simi
imid
izki
Nov
illon
tler
map
IMI
sort
TRI
eman
kauppa
colli
bje
▁פרק
IOS
תנו
huma
szter
▁מחשב
dei
hnu
seda
bum
SY
sain
vanjem
Cha
ply
waith
izu
▁הבי
vente
unti
tention
DEL
aars
size
בח
kulia
aff
lmagan
lende
peng
etter
tree
yir
Trans
iyorum
solu
51)
240
fritt
meniz
ayaasha
PV
▁אלי
ibig
punkter
sektor
Tre
gando
legri
grin
רוב
velli
jke
element
etlen
iyah
power
▁עמוד
oilla
inama
bian
מיר
sette
eacht
דבר
מייל
plu
mizin
amar
virta
meid
xona
regul
▁בצורה
midi
csak
liitto
▁לד
▁שהו
stuk
hni
30)
RAL
iski
slaget
luft
chant
yap
ziehen
ogen
iisa
dacht
3,000
רף
gine
iniu
Tar
load
ytu
letter
dier
peti
ywa
stis
cover
Mad
tanto
/09
funda
treb
ERS
rore
יער
krist
wnie
frem
aniya
fuz
zado
sions
henti
ikos
szek
13)
▁שמו
5.000
iskt
yeke
yri
oten
octubre
ssin
muut
▁תחת
fag
Mari
toma
haru
uvi
trek
zali
ובי
angl
dente
ndlich
angkat
skolan
etur
lee
enes
phu
Bas
dwa
ssent
reto
clo
izia
IER
zdrav
0,0
▁מטר
UDI
מט
▁במיוחד
Ny
gele
KON
OX
DAL
adigan
עמ
asu
yos
heure
lamp
ates
103
homme
Bal
teknik
125
kling
onge
ANJE
apparat
Amerika
isset
[10]
יצר
Esp
dhan
arda
yes
onyesha
dula
roon
usto
zeti
חזר
מבצע
hull
weka
Ser
olah
pian
Cre
KET
ITY
▁וכן
edad
בלה
laisten
listen
לק
JK
arul
אור
iczne
bino
dida
grani
nede
kab
▁מאת
process
ception
ווער
lekt
roid
SKE
חלה
izacji
wara
epe
kron
done
sual
ENTE
raq
UAN
/03/
ssant
foreningen
kasa
פאר
kerja
lazak
ובע
STER
vezet
fara
lof
ֹ
prox
tear
thing
jdzie
karte
obiettivo
alus
chana
UNT
mono
יטה
marknad
tiones
כתוב
צן
hok
SIA
curr
arca
אָט
uis
irali
Link
anger
onekana
סקי
lait
faktor
chtige
tuksia
ground
oribus
beni
uttaa
imp
abend
ists
ESS
isant
myn
gestel
tkaz
angat
zlar
naf
neiden
anii
ulur
brali
guide
angi
▁לכך
reta
fine
funktion
sugu
אג
liggende
givelse
jauh
deset
isista
slim
wili
ateur
hatja
ttamaan
▁תמ
▁רבות
bahn
ִי
ryd
kojen
אמר
lnej
akti
allo
sani
▁כמעט
oner
sori
PAN
leisti
look
▁פרא
▁ענ
izacja
pete
zed
icznych
kowy
orat
KV
▁מרכז
angel
▁ואני
Mae
mpan
▁גא
▁חל
ctis
jik
cuti
nome
leden
boru
JS
slapp
betrieb
פוס
adis
minis
hede
office
dron
tinka
pino
bc
999
veden
deva
gelyk
hain
hindi
urut
teknologi
▁ראשי
chilar
upo
ottelu
PAT
anske
niya
raren
▁מוז
rth
lenmesi
fano
Sy
dij
latih
upan
ajam
madi
ificat
vagy
▁בשביל
lingu
14)
ארבע
▁המדינה
shadi
AVE
diq
stia
Univers
▁שבת
YM
0%
misele
fh
Vis
arbeid
raksts
einander
vissa
vost
yog
rev
institut
vojen
retur
יח
▁בפ
XA
uoju
space
misesta
anum
flug
PEN
גז
RIN
niam
ottak
fatta
ילות
idin
ענע
eert
ljan
skolen
נהג
imiento
jui
legum
ininkas
stofu
nacht
untu
anlegg
ministra
שלום
raken
SES
ריה
xun
Pas
anten
chiq
turas
inhas
bold
▁וויל
finn
ישן
MF
kunst
gier
shen
SAT
chet
ירת
כנה
serva
UNI
tempo
eerida
satu
▁בזמן
▁העסק
alli
ithre
טרי
hyl
arde
gyel
gaben
blok
ESTI
▁קלי
byggnad
▁למי
wachsen
user
lerdir
enean
שפע
lebih
njuje
wissel
IJE
NV
teeseen
mput
nipun
zb
Nie
riye
bres
ANGAN
IYA
iems
gica
333
kies
cumque
histori
drar
ettek
seen
weer
▁תע
EGO
טייל
usuari
darbi
hanan
corrupt
joh
Han
labas
מני
halte
prove
ettel
esprit
▁חול
missa
lca
haja
dapat
olio
vem
instal
gesi
Sun
QQ
נם
גיה
mud
לך
actie
jusi
enco
▁נס
rdim
tatt
vc
כמה
aging
קדם
30%
ppy
ALL
eista
siyon
Tag
hund
gunt
TED
▁הכר
merkki
ixen
tsch
affaire
offre
▁וזה
ksy
teilung
berto
ombre
pix
/02/
guin
znam
voje
TIK
standard
ssum
sining
▁יאר
lieka
favor
dod
dika
▁אס
chin
tarea
laq
lwyd
udah
drin
esia
2018)
cles
jegy
dags
URE
tangan
aaral
wall
jedna
vred
[7]
FER
produkt
▁בשל
-00
IME
.09.2018
▁היתה
▁מחו
phil
Fr
tadi
tesse
ark
HF
toiminta
virkning
teilt
iziran
arme
104
rettet
190
maskiner
ISTA
vosti
kaitse
lick
tante
▁ימים
EDI
▁תגובות
lop
sinden
lmente
▁חיפוש
נח
styrelse
corr
iyaan
gelijk
NIC
iiv
ekonomi
ciens
eggia
hwe
nick
keppni
cse
kategori
haven
DAY
AKAN
immat
kres
clusi
▁בנ
shed
OMA
rx
kasse
ovia
ggy
grunn
גב
viel
ועד
raman
מך
jona
ZN
blas
urkje
haka
RAK
vesi
Au
HET
lique
Jeg
kommer
owni
minut
vane
class
/24
kuar
epi
cf
ulus
izmi
tzak
qam
jamo
▁דוד
asin
mekte
tempe
aty
▁כר
mals
itoare
resultat
supp
fisk
olja
uvat
agne
organisa
inya
ENI
LIS
SHA
zou
paket
fydd
leis
njeni
alaman
pasa
aller
fili
wyl
round
tifik
telia
UST
chol
ciel
vey
eerimise
inkin
sv
IRE
suunnitelma
gegeben
דם
tons
trekken
vini
commerce
shni
▁בדיוק
▁שטי
kwazi
utada
kep
riam
פג
gav
לן
▁מאַ
Jan
share
posi
jeri
tjies
Markaziy
level
עזר
▁ומה
graaf
zny
ikon
ovy
arts
lawan
LIA
otan
ndr
Est
appel
Les
QUI
4000
UKA
eff
ledig
lami
fotograf
weyn
aldus
abilecek
-2020
staje
2.1
haram
gestellt
yuk
domin
dnik
auskas
TING
voy
irse
▁יודע
tiivis
hitung
grupp
arbejde
elni
apu
barkan
teita
▁סדר
▁מאד
חוק
ares
DAG
ljene
איז
neo
▁עבר
thri
venue
hoo
SEL
nadh
kind
shem
▁וכל
wki
Jaa
hail
hele
נוס
Hotel
vole
khon
kumu
IRI
zono
skud
awang
shauri
ttanut
zioak
עין
NIS
desse
lauk
harc
laska
tzean
cilik
culum
57)
mino
JR
▁אד
bitur
רום
Ste
אָן
אפ
גרי
lustra
hilfe
mika
erei
losti
eerimis
zum
▁רוצים
cim
punta
stede
TIM
▁ומת
cidas
רב
...).
nita
[4]
greg
quote
tikai
ezett
jaran
phan
mutat
PUR
adat
tiri
SIL
tilan
ieties
dva
tojai
ryt
sahan
ops
uille
blan
pij
rail
puram
בני
suit
▁האר
▁הור
zame
lijn
lix
יחה
harap
Apa
attend
badi
רז
▁הדין
NGO
straat
centi
tukseen
have
Real
ogaeth
beda
veda
enky
▁אישי
ZEN
ידי
puls
Share
roso
mall
21)
rion
psa
Ye
kaas
פיק
ences
נץ
==
aatio
YAN
ולד
familie
nema
jj
108
guri
posa
NOS
falt
yka
ליט
DES
milia
seng
zten
ovne
content
CES
nilai
gebouw
lank
kund
econ
IND
zaka
bite
cipta
stoja
kking
ילי
itzat
פון
musik
espai
DH
jol
hik
ULU
usaha
Life
koop
maydi
teilen
cian
indica
רם
,7%
FL
gatik
tegia
nove
▁בתוך
Ed
czo
ilka
▁חברה
isuuden
SIS
nell
▁שום
EKO
olni
naweza
חזור
delig
ארי
pirk
1995
Son
waarde
52)
abiliyor
sizlik
bbel
retan
hatnak
Ng
GC
kopi
charge
ikut
dosta
indeki
ינות
moj
wich
מצ
profe
▁יד
know
miesz
liyo
GDP
weke
▁חר
MDB
loog
tnik
rzenia
tuv
forhold
human
jelen
erint
בעל
אלי
gget
fani
holi
odh
dded
Et
(3)
zoek
lidir
זר
אד
ashada
stick
luv
Af
בנים
tuks
eeyo
SHI
Kita
anj
rodz
lago
winning
ferenc
Ban
pola
vori
cij
writer
naan
origine
Time
RAH
carre
tamist
▁חושב
vamo
רופא
times
nies
2.2
passen
gita
tibor
AME
domi
listi
▁הסו
UTA
acquisto
עריכת
▁צוויי
tomat
ifs
dista
55)
kaus
vnost
peta
taran
taq
▁פור
messen
▁כדאי
▁הראשונה
moja
Bank
aalis
▁מקצועי
kram
rades
rske
שיח
רור
zano
▁כיצד
IES
limo
▁שש
reach
baj
ugod
spreken
rozen
דמי
tsje
NM
nggi
cioj
tube
suka
▁חב
ernas
fors
ENDA
conf
▁אחרת
istische
Live
IKU
snitt
lepas
miem
רמ
kuba
SUS
eamh
saat
rwa
prov
sep
World
bov
empat
ovina
adhi
TOP
zari
istri
tzt
estar
▁קרא
Gal
sano
hake
EO
jada
avond
break
tical
dder
rilla
icis
1990
mella
good
mize
scope
cules
▁אים
etarako
ksiyon
nent
zuar
isere
ASS
radd
plati
maran
">
hole
poro
bell
▁חיי
inat
wegen
lyse
spin
arias
condi
lasan
zbekistonda
XT
ambu
ulang
count
hinna
370
wach
pust
rind
264
ayeen
ndlela
▁חמ
bem
tenkin
▁עולם
urta
Od
iyang
ovanju
▁שרי
Energ
jong
53)
mija
karna
gant
kont
geen
active
activ
vedi
kowski
ofa
kryt
polski
jesh
arbeta
ikoa
rajz
icul
gura
Max
_--
dys
rky
wahi
ically
istica
qiy
wiesen
kundige
▁הקו
holen
שרה
▁ברור
resa
lhas
stige
ordnung
ומה
ministeri
avait
enko
ינע
hahaha
lied
cijas
vnih
vaju
.[3]
kumar
uojant
cd
אַפּ
rua
rale
adore
timin
kuun
poja
UX
brik
▁סמ
וסט
OLE
ckej
griff
Nkulunkulu
riaren
hiver
▁ולכן
רגיל
gambar
Str
58)
Med
malli
qual
iaid
utuu
senter
tuma
alak
bygging
rski
tego
usha
ddar
dikleri
llisia
szkol
לאַ
telor
antha
מקומות
ancia
ovih
ARAN
xay
sby
sump
bilidad
luci
grat
tike
hty
▁בפני
kovo
lew
vora
ssaan
ecektir
efna
2,5
רץ
War
onga
XL
spie
OLI
gjord
party
dahan
mast
ahin
ians
argent
kkum
oty
adni
wur
TOK
jumus
kerne
ough
rommet
▁לחץ
Alt
rijk
מוש
sial
ruo
verdi
וכ
nian
ovni
hatatlan
▁מיני
opis
48)
ssimo
ising
stans
▁חודשים
roy
ksu
turile
vaz
▁בצ
idega
away
KAR
toimisto
intele
Box
saare
foni
Yan
▁צור
עץ
plast
lenia
tdi
ljed
nenud
suh
xil
awal
כור
ulation
estat
-31
pika
bhail
frica
fangen
schule
chwy
viser
igra
KAL
Media
aru
gju
סוף
pem
3.5
antan
טרה
yasa
stveni
accia
izany
byl
cham
▁שאין
EPA
shire
zii
▁גוט
itum
Kor
skatt
mpon
▁יכולה
חזק
vajo
barca
▁כשה
bren
צור
rador
ttuja
olva
▁אה
▁עובד
stico
iani
zgar
shot
barang
kutana
ahana
TW
שתי
aktion
80%
viy
dotto
rodu
▁ערב
1-2
bjerg
kirkju
/2006
campur
yahan
מדינה
owanym
astus
Dia
אופ
leyici
IYO
AX
meetri
klon
She
hb
lcev
razil
razione
hama
QA
TTI
transport
lovi
likle
zv
aethau
ppan
wab
alna
Um
tlich
chor
elka
estima
llus
uksissa
caj
2.0
Ana
siooni
ruit
ubo
cjach
[11]
▁האדם
eaux
waz
tner
lman
▁סע
stave
zelf
przy
demokrat
zami
vallen
ומ
xico
alny
tario
knya
bble
▁כזה
sena
aani
aalne
rao
Pol
סטי
oordeel
-90
This
-2011
zeli
▁מאל
siva
HC
▁נשים
makta
▁והמ
ctura
fett
gewicht
kain
Des
turen
ברי
bahagi
iej
עפ
LANG
asso
verne
ektiv
▁החי
הו
20)
cava
patia
SIM
Qur
iuose
jest
Mark
קור
NF
Kr
hud
MY
wp
zwy
03.2018
-2010
kiai
steig
issimi
objectif
yad
anju
זוג
reform
ENDE
mning
Vol
utama
DAS
ולם
fire
Benz
tkin
bric
vuo
kuna
stoffen
layo
niekiem
▁צום
satser
ayat
venir
.12.2018
euro
▁ומו
rrean
qy
usios
Ok
mije
teren
help
▁חדשים
chatting
bilen
gtig
fers
Super
בלו
mania
butan
▁אותך
XC
klubb
elektr
▁ספק
זא
pallo
Aku
riigi
pka
viete
programma
pustil
abel
tland
reste
><
igheter
"),
ezen
urra
lex
▁בעיקר
hatra
bije
hnung
iniais
tumis
rece
VID
pravi
▁משו
rezza
polit
bril
diet
messa
cyjnego
rann
articolo
vogn
ונו
objet
API
KH
lnie
guen
gb
Tri
handler
מוד
gaj
mys
▁הסרט
kao
porte
SG
Esta
47)
▁ספרים
fier
pene
rle
krom
taal
NAK
kkur
paper
insta
oloog
timet
▁חוב
virti
nize
anci
gta
modo
ledare
kkar
zala
jiet
▁וק
bringen
ysk
vaat
esperienza
rih
ebilecek
trol
dija
tryck
fus
ayn
DUN
ייב
plek
vell
patikana
letes
siko
▁ויש
evan
hini
guda
▁פה
jskim
namh
kalau
ched
daran
idhe
hirap
toxic
buat
56)
8/
emon
modell
נוע
verge
-2013
GIA
dano
went
ZP
▁געש
▁תמונות
avam
מק
oksid
alba
ups
ckiego
mille
ssos
rabia
tiedot
ZS
likt
industrie
למד
ssystem
pain
רחוב
sidi
csoport
eachd
tulong
mpana
/20
BM
loko
zej
psis
idhi
keri
נתי
erweise
vimo
ujesz
pne
VB
alem
EUR
[8]
taler
halen
rique
gau
יכה
▁שירותי
lerne
ject
GV
▁משל
lokal
phon
kub
venta
ױ
ahir
pisy
kommun
rose
קער
antu
CY
אַמ
katzen
entitat
ragon
tepe
Apple
By
Zu
לס
Online
bruik
dajte
wb
inud
arsi
owali
buran
riai
usio
cule
cycle
assurance
▁הייתי
izados
ruth
uksiin
▁קיבל
yey
rente
hair
tande
onas
uck
arb
BET
somme
hip
בער
weithio
WC
hawa
▁מאז
yarak
...]
LJ
quest
iswa
▁חברות
prog
jimas
font
itten
tezza
בחר
אהבה
Twitter
chou
belt
STAN
ANTI
hic
kkaus
impa
krank
jamos
▁חשבון
reichen
ivel
anana
sjef
anggap
Tele
iglia
diko
▁לוח
sasa
droom
▁מוס
sulta
uvad
גת
folge
▁וע
jcie
vania
fuata
suoja
AGE
▁שאלות
eihin
edik
faglig
-300
zida
tags
BAT
atia
vur
namen
TEK
capaci
gleda
boa
יחס
aysay
lesi
mbr
=3
mysle
naire
gulo
tamento
צב
abril
sib
ljive
Pen
nenie
USB
enos
jec
scul
raden
ambiente
kasin
suse
1]
FX
בוא
ffy
elde
...!!!
antza
ָה
ddin
pump
with
kow
OUR
verunt
pane
dakah
kale
onde
zama
departementet
tycznych
bygd
dino
gora
zep
010
oke
gelse
flor
ZZ
lania
udin
tekst
amentos
skapet
elve
tuo
BK
schied
datud
▁גבוה
▁להג
tzu
buz
hallen
tajn
mr
eachta
אש
320
europe
behandling
aysan
1993
1991
avez
▁מיי
Ez
kanlah
bilitat
gato
bent
sug
fjord
dret
gesloten
aab
matka
cked
estiu
עני
oxy
▁עצמי
lusta
KIA
KOM
melt
ooyin
tagen
▁יצא
▁בגלל
mentul
viera
▁המח
ANTE
zve
tajien
wany
EET
Cat
נאַ
AVI
ASE
brati
Masukkan
stopp
baren
gede
▁במסגרת
kizun
לל
vertrag
seura
reve
idele
bericht
gok
wazi
virus
GRE
liyin
naviy
brauc
▁אַלע
▁יוצא
maskin
deira
Mak
.05.2018
pedia
קפה
vasti
hihi
based
▁סא
informati
pind
cias
zok
...!!
posit
fyr
bukan
007
cijski
▁יפה
sjes
▁אודות
▁אדער
ערט
duct
▁חדשה
▁סוף
4/
trieb
ovka
iinta
yari
houd
sanya
▁הדבר
akku
wirtschaft
mitta
torial
[12]
▁קטן
xana
olas
NOV
atum
jmo
kushoto
sunuz
126
zier
wati
\\"
▁הדי
luku
יסה
tunt
ttavaa
seite
duction
BV
gesetz
1992
ggia
greifen
reid
sunu
wasser
כך
agoa
vlad
heni
otus
atin
0)
lecti
*)
sung
וה
amor
ספק
siyalar
keh
plaat
ייע
cionais
רית
sulat
אמנות
ratzen
elte
666
izate
dziej
jelo
etet
imize
kasti
kora
grip
28)
jeng
kull
yish
▁המע
suhte
pokoj
suf
irane
rista
erant
▁חת
▁אידישע
hidrat
▁מהם
ORG
49)
יעה
pune
sola
fry
deng
Top
stani
pastu
עשי
sygdom
straff
atmosf
kanje
ultima
appar
CON
powiedz
ytt
▁למשל
deur
mizde
gyn
aldeko
szko
snes
muni
▁טי
kapital
xwaz
Tha
nee
holdt
rakstu
ופה
indirizzo
nish
mish
hlen
patu
take
seadme
ntino
59)
▁הגיע
6000
stare
▁ביז
hill
HH
check
▁סוג
1500
proses
haba
חול
JAN
hafa
kowych
leiding
miga
pose
taro
raidh
kaza
dham
USE
מורה
mbaj
styret
heer
ikud
vais
Col
ably
kosi
opter
ncin
direkt
teiro
klen
iako
Shi
Met
inek
לימוד
Ji
minum
tirib
lianza
MOR
leka
agd
לם
יזם
nimada
primer
Tan
Plan
husika
קאַ
fart
RW
amies
xio
grense
linger
GL
fere
tzailea
boll
rase
▁עושה
oze
padne
znaj
▁לאתר
isana
MES
050
luas
ICH
riana
giz
ATO
verte
gp
/07
▁אמ
museum
Ant
PJ
ksin
שימה
▁ברי
jian
Shop
winkel
דיו
retter
1994
trik
mom
jie
panga
OTE
▁התובע
flan
grupper
GF
treff
iyaha
HN
welt
loze
runk
אמא
NDE
bildung
kaardi
raamat
prob
oppi
diye
grand
tuotteet
ehto
ovic
בנות
nggal
ottaa
▁למרות
lacak
עש
לוי
shka
bunt
guzi
torius
prak
atutako
luh
zdan
ndeki
irii
viku
bling
wienia
ciente
tema
faidh
moi
PON
raient
nous
lh
tieve
bait
vann
owanego
nggo
huizen
ברים
qlar
minlash
meleri
TECH
gener
marked
casa
muna
sona
serien
ndere
teman
Mat
מידה
punan
כתב
ksjon
hell
rogen
estas
Kal
bauen
cyj
ckar
Vir
handle
wyk
iseer
cand
dosh
gegangen
nasta
sidor
יבי
2,000
palvelut
avis
saday
eigen
דיר
zeni
report
ykite
vahetus
GET
stiku
spring
ously
liner
VG
agens
Out
oszt
elewa
etxea
עשו
ISH
לח
szint
Kat
ydelse
דק
nskih
pension
▁שנת
arat
stasjon
לין
▁קורס
htm
wic
dzien
פרט
isuutta
prote
sata
leges
Bro
iaus
ELLE
metre
houden
rebbero
hout
CAR
TIS
jdu
lukan
KIT
izy
))))
statistik
LUM
xus
מרים
▁שהת
Fu
▁כיום
Bel
elmi
linin
euros
abban
HOR
czony
ghan
▁מיין
nutie
asach
zde
huur
butik
retning
-200
טון
torie
gori
תכנית
tempat
rasti
nele
▁השבוע
דירות
230
doni
leriniz
amon
czas
pion
install
4,5
▁מזה
licita
shma
lds
trekker
▁תנאי
stellingen
פּר
distrikt
UKU
SAR
uliwa
oane
BEN
zero
rikan
kang
biec
direct
urri
order
-70
tuje
miti
▁אוטובוס
DZ
AMU
fallen
pine
ptu
▁ילד
stest
vante
AZA
bridge
bied
demo
metod
boot
resc
tiye
igitaj
kocsi
iteten
▁פרו
radu
27)
Red
ALAN
accordo
סטע
.06.2018
puoli
Far
teikt
▁קצר
llaan
vning
faz
region
arnir
sweise
iac
▁איינ
ginti
brit
ential
bygning
stej
paar
teesta
▁שונות
alainen
gjer
1.3
קום
szej
tiniai
meh
stamise
שווי
uqa
lanka
jenja
torum
korea
telje
iams
KOL
▁ואי
tigt
informa
mbala
skt
HCM
eerimine
AMP
tiene
▁תורה
Next
prendre
soma
zimmer
schuld
expert
stag
hwy
logia
nifica
miste
uudised
delik
pflicht
גני
veren
▁גבוהה
block
▁טרי
books
tery
פורט
trici
Free
GRA
▁דאָ
RUM
רך
raw
vitamin
verb
palo
Kau
nera
klud
matkan
▁צילום
aketa
vazi
tatott
cenie
nging
olon
imat
kapa
hetnek
endre
▁בנוסף
bben
kortti
gawe
ovky
nista
terv
stuksen
IFA
tase
liegt
znie
שיתוף
TEC
▁כה
128
izacija
YU
See
americano
kadang
LN
riq
OSS
pored
ntiems
mobiliar
musi
bica
ובר
lingan
How
Var
שן
parol
Pal
aleko
ספר
▁איינער
..........
▁בלתי
cando
manns
יפות
irat
chon
12.2017
mult
fres
oida
חוש
entzako
zenia
langkah
sakyti
control
nemen
ongoza
▁ביטוח
▁אותנו
▁וועגן
63)
Commerce
ycznym
eissa
circ
asyonu
impression
ginn
bib
arski
jab
culi
narod
anud
vena
Gar
Bil
ickou
vakt
gast
koodi
But
erken
arto
pasta
yeti
yys
ird
Euro
vereniging
▁הדרך
2.8
UDA
zahlen
kmetij
aldean
chop
יקים
OF
0-1
nskog
BF
Iz
lup
ידה
przed
cius
sminister
May
yiz
impegno
tkazish
▁וכו
hata
3,4
kanal
ural
hea
ozo
ndak
setzt
kilala
IWA
khona
empresa
heb
toris
IPA
lanishi
leo
geme
rosa
▁חלו
סטער
קבע
suku
hava
(?)
afodd
SSA
odat
hine
tager
mmat
ULT
▁הקל
merkt
nbsp
▁מנו
5.00
bentuk
MON
oksia
zahlung
tyje
shiq
nienia
rinti
former
telo
grond
gekomen
klus
▁הישראלי
1:
jede
tocht
5,00
24)
meng
mbara
sniedz
idest
-45
פח
assurer
inak
ciri
שׁ
alala
wiedzi
moli
debat
salg
enfant
givning
▁ניו
▁כללי
klassen
atii
kokemus
np
▁שכל
UV
abbat
mienia
▁פיר
boga
dati
IAS
bolaget
yaz
Jehova
▁בראש
alach
/100
tsika
quita
aaaaa
ittu
hany
נדער
dydd
lassa
onej
nosci
ginta
rovi
VII
NYE
ווים
feder
mui
vriendelijk
bility
modul
LIM
issant
geli
▁חג
eedka
akor
nassa
bigay
▁אוכל
wcze
ticos
schijn
LAD
kald
zun
ETS
רכב
tya
entrada
siri
umine
pako
houder
bilang
parken
caso
vonal
CIO
antara
izay
שמה
chir
exp
kaka
anaya
ipari
gehend
zkou
bakken
fig
oppa
29)
orten
czym
zgl
breek
umuz
canta
verein
NR
-400
.1.1
cile
aminen
מנות
ogram
▁רצו
affi
▁השת
teka
inchi
REM
lce
mehr
▁השימוש
76)
tamalla
INDA
lerinizi
andet
zijn
drau
pini
MAX
skur
שא
VIL
agent
dzin
aaa
lasti
Sur
▁משת
gitt
▁מאי
Char
סביר
ssimi
▁פיל
biet
mhair
urd
pasi
osis
מציאות
MIN
:))
qil
ACT
klare
KAS
estate
gados
bow
iyeen
cic
vella
friend
▁הצי
▁בב
linga
eithiau
▁מצוי
givare
fried
שלח
System
ssez
macam
kynn
66)
srecht
קרי
ellement
yske
DG
ityksen
▁שפ
VIS
izing
gami
high
ואה
fish
LLE
klan
mmelse
768
rance
▁אָדער
daginn
▁סיפור
udun
qir
semi
stieg
Finan
חבר
plats
nende
entibus
effekt
cert
malu
אַנט
ancien
▁החוק
immagine
pensa
hotmail
-80
vlada
יפים
לוג
evento
OSI
רוג
ringar
intu
BRO
CF
bonus
kens
380
robo
▁הילדים
bolt
langen
69)
ATION
verit
jiem
iranju
isola
natural
njima
cone
qiq
heil
stres
yip
diyo
mesini
mainen
osz
spett
▁כולם
עיצוב
▁ימי
JER
tahun
geving
NZ
kwenza
ounce
hug
richtung
AW
YR
tyt
teist
[13]
jh
נוח
uras
salamat
ssar
prije
UNE
aint
icama
pisane
quil
AKU
skriften
gee
risht
tider
kjent
venuto
tettava
werte
ljuje
ירי
nictwa
hran
LAP
stipr
▁שיעור
misjon
stron
iunile
USI
+3
650
jskog
havn
panda
▁מגיע
ciler
26)
systeem
CAD
lutning
avant
375
▁געווארן
▁תוכלו
הא
DOS
▁מלון
kawan
CEL
kuju
eysan
laufen
Ven
cento
23)
verz
historia
tuju
valent
atsiya
וץ
BG
▁שהיה
▁שמע
Uni
pohja
islav
isay
rapport
▁כלי
rili
ETT
gjort
levy
strum
cute
produk
lupa
INS
▁רחב
apport
urnar
ONS
סון
riy
call
נייה
sagt
bug
pone
pici
ifier
▁בעיר
kaasi
ndawo
nieuw
kirjandus
▁עסק
mord
ringan
NAT
regler
mando
hoek
?????
hovo
numero
pewa
grein
Yehova
sports
▁נייעס
ימו
irkan
ACA
nine
salt
mell
cero
▁המידע
engan
ejte
magn
zaji
klassi
arba
messig
ravi
פול
beth
Mere
kanten
lula
Ev
ntibus
pathi
משך
rack
heri
▁לקרוא
appareil
oppgave
▁כתובת
מרו
tenant
heed
brio
seo
vke
]]
search
BANG
elako
דומה
ireachta
Date
▁בעת
uosius
rone
rrera
valle
FK
Kami
hitra
kvo
tuste
story
abay
iral
onnan
nisse
ssima
+++
stream
ismul
niveau
ולים
▁קודם
itou
65)
quez
\\'
▁טיפ
wini
buy
tax
rush
daftar
229
cane
batur
hova
corp
▁רבה
Mit
linis
maailma
mpaa
seksuel
screen
that
iding
delle
serve
iausiai
encji
inize
שער
▁פעילות
ffet
isena
isyys
▁גדולה
stoffer
...........
enhet
פוליטי
▁דק
slaan
amore
missi
venti
ZY
(3
gott
mobile
shimcha
usias
jooks
responsabilidade
skudd
loom
▁לכן
draw
solve
VT
▁שנות
curso
trico
kkaat
hrung
bella
posizione
legal
tuba
sinya
mesema
mona
frau
union
67)
morf
pasang
kumi
ljenja
UAL
יצור
ותה
ionis
bash
▁כמובן
management
VAN
YI
ography
ataj
bladet
פטר
bury
isieren
diens
ARIA
SHO
cchio
ANZA
wiel
▁עומד
schrijving
Ten
vito
balu
khabar
pjes
arit
dymo
עבר
מאָ
▁והת
Bur
artikel
555
cerca
tono
edes
WD
vika
trix
racht
fero
gros
steiger
עקט
Om
tress
hdin
brau
▁אינה
situ
baut
syarat
schloss
▁מציע
balan
impi
bereit
finans
ziq
ivanja
▁מעבר
▁וד
▁איין
liance
bubu
hart
moda
novice
ztu
location
isio
הי
IMU
turer
▁חבר
tikas
prowadzenie
kaji
▁אנדערע
wear
menet
pong
instrument
oshi
utili
ometr
-05
OOD
nggang
iyadda
8000
ukra
Adresse
tinio
aidhean
DAT
mega
isztika
alaba
nab
▁בתל
71)
piiri
wahl
▁לז
Cap
trait
zidi
▁לאור
kseni
owanej
▁תשע
hrani
ajul
zili
timit
innova
▁ית
IBA
wesen
▁העו
jobb
wort
ENER
macht
dinti
stvom
.............
priser
zlari
210
ichi
avec
74)
Internet
IZA
tiivse
trafik
alista
Plus
mojo
sene
LEX
64)
תות
pusz
liwe
-02
isean
/19
phen
cipit
dalo
NAR
hier
utis
mood
drive
plattform
tavo
ksesi
112
eeseen
shgan
/05/20
444
barra
RIT
LAK
ells
izuar
ettes
culture
ינת
▁כרטיס
artig
therapie
roko
60)
PART
09)
gradu
malle
pyt
135
280
veel
קאָ
agam
GD
יבער
px
suche
pros
▁פנים
תשובה
riza
dych
Sz
(*
kompoz
baha
ezer
▁אמת
paro
volt
ISE
jamas
kleding
tiivi
▁ווייל
marks
MMA
saken
lulu
GN
SIN
desmit
matica
rania
riji
riem
proces
▁ליד
devu
ונד
▁לחי
490
MX
emper
25)
ידע
GAL
laitos
harmoni
otin
feat
ordningen
SW
ziga
nado
scoil
lope
ushi
wyll
BIT
ifique
kalender
YB
pido
tool
עסק
prakt
▁משפט
70)
wujud
sicher
ahidi
ערי
litz
▁הדר
lnym
NEWS
SEO
▁המל
▁רמת
ozni
slova
Vil
ungkap
shar
kande
feito
Eesti
aeg
naigh
lagay
trica
▁שבה
Arti
sust
uudessa
▁חינם
rbh
isyon
pyr
klinik
algun
zino
09.20
klat
eczka
▁פעולה
יכות
entorn
ufa
תינוק
liyor
wada
organizzazione
obla
llab
DON
izao
6.000
?!?
LAB
tyksen
larna
lotte
utum
▁לקוחות
euses
italia
Andriamanitra
maken
tidak
pozor
thala
verzekering
kleri
▁אולם
חוץ
22)
ketju
tamista
guar
viennent
osabb
imizi
izzata
strom
fore
urban
660
upu
knek
▁זר
still
Fer
משמע
bind
ורד
cted
עובד
setting
ssem
40%
UTU
kreis
trekk
ndamise
INN
vette
cred
knut
tsar
צער
TIL
ctio
ddwch
daug
bull
▁ור
ציל
ALU
atau
nicze
betul
eynta
▁ניהול
quat
ittely
זמן
uncu
עביר
zita
ciendo
medlem
arth
event
staande
קישור
▁באזור
2]
skipulag
gaba
repet
ORO
YD
approche
szego
kologi
rygg
stamine
TAI
jaid
India
▁ברו
rein
!(
▁הנה
bulu
oloogia
materi
RING
kkeet
cuba
zeka
ilecek
ecer
Ger
550
pien
evne
lenk
yki
68)
STEM
fiki
abilidade
hear
shti
bore
culis
VET
rozum
szki
isip
trend
tyl
בלי
שרות
laag
magyar
eysa
gaga
RUS
flokk
כיוון
kash
phakathi
▁במשך
zara
Het
colare
yksi
▁שחור
תחום
verband
qab
ttavan
sija
pustit
delijk
▁כח
pico
itvi
ratta
datum
אחר
kkeen
aichean
tania
wise
!!!!!!
proba
ndatud
ראָ
▁לתת
hero
rnir
kabel
XE
plauk
▁מיליון
igheten
rutan
sammen
ketak
racia
mbangan
Van
IDI
stato
IZI
chang
-2009
▁משחק
(10
klusi
25%
setzung
trzy
hagen
hengi
magi
telep
680
axi
tokana
ztat
▁מדבר
Gre
panel
naga
boni
sexual
bird
פיר
ltu
WER
960
מחקר
ZET
boro
OME
itteen
fax
נב
skifte
AKI
If
pori
zice
pent
▁כסף
VAT
OOR
POS
Eng
NEC
dimension
mination
torului
irg
anipun
aber
verdig
achat
siq
RIE
banken
fac
תית
Yes
quad
luvun
kesk
NJ
vino
rido
regning
tall
cimiento
ssie
מכר
jing
20,000
diler
diena
pama
עכט
PORT
trage
plikt
Mod
hockey
kaze
Hor
תייחס
xente
-08
haber
string
gib
kille
plass
adam
orin
argi
גמר
yorlar
NJE
▁יוסף
תמונה
▁מוצרים
kood
lovchi
juta
lood
travel
ritza
למת
ridge
CIJA
indre
postadress
ANGA
tarra
32)
achas
antys
ljanje
LAG
hehehe
udha
!!!!!!!
zaam
ijden
1.4
bagai
konduk
aaday
הפוך
eranno
▁מתחיל
▁התק
psu
saba
▁פרס
Win
kime
zwol
fusion
hiko
sensi
▁מים
pew
1.1
acce
Rus
lerim
kainen
zsa
lnih
dienste
skipta
טיס
uuliyiin
kuasa
steigen
davad
komand
hida
BIL
יגה
▁השל
ilish
Lie
GES
unha
strik
קב
forsikring
Mil
▁סקס
endam
iisul
edat
וות
arten
רוח
oarele
VL
9/
NIE
sumi
ticas
stille
▁תת
TTA
zbud
reiten
nelli
ULI
4,000
און
▁בעקבות
orkest
ffo
huile
entur
plate
HY
piti
pisati
birin
unternehmen
itetit
xl
אַק
SAM
nood
stall
▁צייט
mdan
▁איזה
tages
11.2017
rediger
nadi
TAK
ורת
beck
3,5
then
ismeret
soni
wnego
clin
bilita
yalar
huri
elia
▁להשתמש
tarian
▁ממנו
RIO
UO
drow
XD
eyso
ouvrir
cyjna
damos
buti
וציא
בֿ
racha
YL
סדר
unica
LOS
blement
hifadhi
achaidh
zustellen
קשה
odott
pisan
registre
worth
nieka
elwe
אנר
bergs
amista
gler
▁הדו
tule
▁מדיניות
UTI
provi
Info
luokka
kule
Ul
stedet
/01
▁בסי
offerta
glasi
Line
גד
dimo
▁לט
▁לבין
wechsel
laksana
פית
dheid
iskola
piri
ohje
UAR
ANY
limit
יתה
צפון
ordine
veien
tuksesta
kritik
bilo
orto
posledn
raca
lindje
bw
Hz
יקט
assemble
atsioon
fuck
legur
OLU
ערס
schilder
רש
wezen
gangan
iseach
fuld
liini
▁חיפה
▁וועלכע
yksen
vassa
arren
0.5
ZAR
usap
168
efect
mlad
כבד
spire
▁ההת
אַד
raksta
1,000
puti
ajai
9,5
fair
prise
cultural
tiere
sakan
75)
hatunk
SAS
edici
uuteen
mesine
lanti
niejszych
ndolo
rious
iame
79)
DAH
▁נב
jalle
vento
יגע
larimiz
objekt
Rip
esimo
sell
olan
KIR
dalam
Lietuvos
health
bizi
mheas
follow
celler
alitet
BOX
klass
houding
muoto
later
inai
▁למו
ביט
TIR
zemes
randi
nuk
celi
isque
hore
levi
LAM
▁בניית
/2004
oratra
trouw
xor
range
bureau
prin
pher
andina
HAM
tzaren
ngkang
butikk
niach
reden
THA
330
quid
Respons
ismen
paikan
!),
melo
osamente
STU
lanib
eysay
abot
walk
rigard
רבה
hausen
ikli
gezogen
stimmen
stavu
KUR
sopimus
STR
Cal
ckel
Blog
haga
YP
gym
▁פס
planen
THI
kubali
gtige
uojama
tratto
פרי
PRE
kriva
Land
ANJA
▁שמת
muigh
quar
lihat
▁יצירת
culus
דאַ
igos
ganj
Press
OSA
genti
ouverture
gelegd
מלי
pasti
kiya
wiec
guma
opisto
Office
upload
ARS
ערוץ
steller
TEM
ikkaa
udstyr
KES
laze
toko
music
sys
halli
kran
HER
BAL
▁באו
fassen
LOV
▁ואז
gintza
wej
avance
knop
franc
thir
ndru
8.00
huga
בעיות
רגע
▁עיר
dhal
▁יעקב
[14]
sjekk
▁הקי
WW
iladigan
NIN
tatakse
dzo
▁זכויות
Bet
centra
inot
lengkap
ASAN
impresa
▁אג
hluk
qli
▁אָבער
▁בירושלים
ויז
project
samba
importe
puna
disi
onica
garna
kopp
lendirme
Kas
olaeth
esco
MIT
bato
Hindi
vandring
resse
EZA
gihan
▁דאָס
ufu
שאַ
fabrik
▁לוי
step
ofon
URL
ewski
patri
ngwa
takiwa
סק
maskinen
jist
utilise
רווח
runde
CION
▁עסקים
bagi
mash
funa
besar
stress
VAS
ijoiden
cross
ulum
heu
lips
dilar
stamme
komun
asszony
▁תהיה
אין
ATAN
31)
pangan
HQ
halla
gunakan
lacaq
UJ
liiton
▁מט
COS
intza
stund
owaniem
כני
KEL
dane
nag
rix
rapan
ebben
hallin
ahli
abka
umise
pant
ODA
kossa
Yu
IGH
כש
scono
iumi
wijze
pire
chip
FTA
manan
mobi
ukiwa
india
Qui
ayso
ALAM
345
kesi
earre
laps
מספר
GUN
egyen
▁מצד
LEI
kezd
ullo
mese
entretien
▁המלון
illion
bisa
ferien
▁ווער
דרך
puli
טא
eliai
give
kriti
iniams
ayya
iausias
isla
baka
diamo
מענט
mons
proq
programmet
▁דולר
tembelea
▁נושא
▁לילדים
3]
nella
borgar
vatten
▁חוות
alnych
gamos
טוס
tengah
HEN
iliyor
naithe
nevad
fungua
keliling
mised
Sub
urken
IVE
TAT
juna
arvio
geschreven
▁מאפשר
PRESS
...............
מוסד
shit
hnen
utti
student
matay
זור
lavo
stelsel
untuk
rawan
ifikation
TURA
שיב
1200
סא
xeber
iniziativa
trou
organisme
nienie
historie
LINK
tuot
לתי
rami
pending
mby
חומר
kwi
activitat
ohej
asjoner
nyom
שפה
paran
כנו
▁אח
ELSE
dori
tesa
kowej
bomb
ניו
nkt
BRI
kausi
bone
bilitate
▁יתר
טען
Este
erima
tworzy
111
verkehr
uud
olojik
Play
1980
cabang
tiszt
miya
economia
pligt
cser
3.1
▁קרוב
saran
ziwa
Day
salar
ologisk
תיים
ppt
szen
Wal
tyyppi
ovacie
70%
משפחת
rinkti
liana
pies
Fun
ksid
002
samo
solid
/25
verde
Stra
steb
▁בהתאם
▁מאמרים
trie
divi
Lab
ruti
produktion
haltung
hira
▁טא
Shabaab
likka
centes
orvos
tischen
adwy
-03
260
/02
igna
.''
ושים
גלי
DIA
hatha
ONAL
seja
ssero
▁נפש
tiladi
טאָ
engage
ecko
kasih
SCH
matto
applicazione
כמות
Black
uwi
mmande
kvar
iloj
tamisesta
▁עריכה
▁שעה
▁עושים
.10.2017
natt
▁הטוב
oittaja
likus
torium
pean
Jun
stati
rimit
brig
קרן
partiet
מינים
illaan
miliki
RIM
aldea
▁נר
ראי
tinga
hagi
zazi
simme
AUS
slava
▁וס
leistung
קוק
CAT
NGU
יִ
podrobn
gemaakt
conta
▁האחרון
isseur
PAS
moq
gola
gerecht
scape
אמ
europa
ww
▁צוריק
▁לאורך
ksyon
bantur
pierw
▁המשחק
hinder
temperatur
BOL
blis
YON
stap
fem
sonder
John
TELE
jevi
havi
prins
ruc
geven
stimmt
▁לעבן
suun
diyini
anada
lumina
SSI
FORM
mahan
thanda
FD
ikot
szczenie
prosjekt
acijo
mida
icae
boleh
צרי
skurs
ביע
entrepreneur
EVER
▁פלא
DRE
ittain
onnement
▁עשוי
מעלה
solut
stens
jeno
effetto
PAC
cego
Tor
TIC
MBA
maton
teken
match
תפו
dame
rating
אוו
lapan
▁תוכן
rera
mpuan
גט
reif
aadka
19)
proof
▁הנו
arbete
local
rocz
Che
edz
[1].
232
וועל
rigo
visible
GK
almi
saam
industri
txu
insu
ROD
poka
bound
חנה
ansvar
treffen
uscita
טרא
NICA
▁ככל
(4)
kilpailu
yczna
shad
vaart
ZIONE
ql
bieg
780
Sie
unkat
1945
analisi
▁יצחק
utha
kabidhi
tunni
odaw
chine
guan
hukum
ustatud
▁משפחה
ohja
▁מהמ
ards
kalt
גם
המ
race
laust
layotgan
uthu
▁מיוחד
green
קח
FAN
iero
bate
▁שמח
salon
▁פול
chtung
▁הערב
▁טבע
▁גבי
9,00
parent
ndab
veilig
acheter
▁הלב
loch
abri
urb
ניס
ayu
materjal
ologische
kelia
hivatal
ייס
cionit
ANE
gestuur
rund
hila
pale
iewe
ples
stavite
Europe
hydrat
tempor
terem
XII
tuksessa
stander
אָרט
esnis
stoffe
ttinen
samfunn
ntul
INTA
yczny
▁הדברים
CAN
periode
batu
מקור
qaz
▁אויפ
▁עקב
קורא
irajte
0.0
merci
lule
rumque
diniz
abilmek
ekhez
WORLD
sorge
enseignement
sense
ective
held
TD
akty
.<
חפש
velo
badan
cok
kauf
INEN
xigeenka
▁להבין
ganti
jaks
elect
LEM
jour
Photo
urun
Organ
this
Hay
tamiseen
brid
keel
dengar
ingia
sebenzisa
nikiem
liches
siwn
afhankelijk
jylland
kuwepo
מנהל
מלא
▁ואם
יתי
masis
owano
gelig
90%
optim
יקו
jag
yut
tuloy
bios
View
bygger
ovine
ואי
mbal
Islam
tyczny
פרסם
fanta
Actual
poser
Kam
770
cours
Los
atuta
algo
kondi
uppgifter
RAV
kozott
DJ
tividade
▁צורך
loon
pisco
klep
forbundet
entie
integra
tiae
sites
Continu
▁וואו
qur
vag
BAS
ljivost
15%
ינס
rosi
fone
museet
נל
erend
pasok
kuse
jetno
ITT
misli
jungti
Afrikaanse
chair
1981
DRA
01)
arrivo
שית
gandi
fanywa
agost
שמו
kval
aring
zdu
QS
trus
ckiej
lipat
קרב
hasil
blar
trina
LJE
sunod
reglu
zentrum
▁שאתה
athair
forvaltning
saimniec
▁אומ
gehalten
bulan
uvchilar
inscription
מאַ
NAP
ebiliyor
pron
יאָ
aaminen
exposition
duci
spiegel
mpung
▁ארויס
govori
Mor
Team
willig
HAS
HV
iate
faka
proti
02)
iyyar
Jag
rath
beat
נעמען
jci
kracht
peda
▁חודש
gezond
lander
ארט
regne
edifici
▁פרטים
emaks
inizde
Jes
turik
סער
orri
ilayotgan
padlo
ombra
statt
99)
SSE
ellt
▁הקרוב
MIA
SAL
oille
eien
application
▁ופ
▁עולה
מרת
tzaileak
skimi
namn
285
36)
gane
jili
jibu
izmit
למה
78)
platsen
ibles
krig
sborg
FB
IFI
soek
pler
liik
▁נתניה
ERC
SPA
wienie
Claude
▁חזק
chron
/04
kW
iniame
epoca
gach
0.1
suar
פנה
2-3
gitur
BH
nyol
szeg
tehnoloogia
1.0
יכון
AQ
sebenzi
ovec
legra
▁חייב
ICS
▁השו
maksa
HAY
ometer
cair
oeuvre
nawi
Film
kovej
tycznie
777
oterapia
NOM
▁שד
LUS
listan
QU
▁מגוון
akit
patan
renta
tades
komunika
▁יח
IPO
nggah
piro
produc
bber
POR
obs
sicherung
kortet
▁בקר
wg
Aus
6,000
kontoret
jevanje
oleh
GW
ערך
LAI
skild
retten
tiger
Sol
▁בטוח
kombin
liny
aysa
Associazione
hild
nomo
▁לחו
מדינות
kosa
KAI
ranse
lending
plads
▁מקצוע
3.6
steder
seits
steach
מוס
▁לפחות
inky
tautu
▁שוק
▁ספורט
▁שבוע
WY
+)
ARTE
gitara
▁וכי
selskab
eremo
balo
▁התו
wsze
drome
lainn
registru
frage
unnar
nytt
ways
Form
stod
sagen
pojen
דיק
gueira
JM
tape
aardig
zije
▁בריאות
288
oslav
zaki
PLE
haar
mahal
ility
istele
נהל
machine
prezent
OMO
ורג
Tavs
interesse
lunga
astro
▁מסלול
americana
itelji
istin
reisen
schnitt
Open
administra
getragen
יכול
▁מראש
mettere
poliitika
wasa
OJA
corso
lesen
HIT
שכר
tanggap
owicz
ministro
avisen
----------------
bunden
זים
רפואה
▁הזאת
wikiloc
vaks
vrij
kampanj
פתי
IoT
iyaa
zain
rjocht
fokus
->
tajat
▁עליה
bayan
הרשמה
marketing
geht
delingen
logie
LAY
boje
321
etate
umbi
loqui
RAI
יזה
ampu
רחב
ljon
RAJ
yerek
gelt
Unis
נצח
Shirt
דורך
ningarna
tegevus
iyorsunuz
ovce
צרים
jskega
loca
LX
Yeni
plak
ologji
GAS
115
tjenester
cidos
ulio
mandla
טבע
TZA
aura
cide
ffordd
thana
מעשה
355
-06
teret
ruimte
zato
ttaminen
ERN
wezesha
(5
foon
MED
vlje
flutning
Tro
riba
ALLA
זען
גדל
UTE
gnu
raith
alp
טלוויזיה
▁הממשלה
mayacak
Bri
▁מתח
כער
ILLA
theater
cijom
▁אחרות
ycznej
▁בחר
fortuna
אנד
270
vore
OTT
385
קומען
כלל
burgo
▁יחיד
studie
ndhu
kerta
uesi
encontre
gyr
Sel
hula
lapis
tamina
lift
treba
Nem
480
linder
nggih
▁כגון
tellen
chester
versicherung
ZK
changia
halle
▁השירות
kehr
5,6
zetten
very
skrivning
middelen
779
rechte
............
RAF
ljev
kevin
חוף
ramento
Pay
Love
bax
vill
EDE
shib
poteza
baga
Lib
conto
pravljen
טוב
tatzen
4.5
nnettu
fungu
TIV
תלמיד
▁הקר
aegse
▁שאלה
huni
znani
זרים
נור
▁עלי
meel
-2008
Power
resh
980
adres
שטיין
sprache
elwa
mees
prijs
kaista
laban
apuram
▁יהודה
מזרח
hodne
yapti
brev
sitz
garanti
▁אנשי
evski
▁גב
register
Jul
moodi
garren
tsaka
שטע
burn
▁קט
depend
ORT
estero
vagn
gwa
Cam
banan
▁היימישע
ליק
kring
prodaj
duto
installation
Heeft
iausi
support
boks
Gen
▁הפס
jord
banda
flytt
utredning
zogen
esque
motion
szabad
גנט
joy
kujt
טעם
toje
sedia
▁דווקא
▁ללמוד
blja
edett
▁אירועים
דוד
טוט
grama
/2005
bildet
Settings
skum
CV
ografie
brala
tuvo
233
rari
pflege
kivi
070
SKU
EAN
xido
מדו
KUP
▁גור
ywania
plot
linjen
ylab
iwch
sioon
skade
shoot
386
MAP
wawa
viez
▁פסק
HAL
TERI
פינ
(4
cyjnym
Norge
fok
sajili
▁לצאת
empaa
PIS
iarratas
tese
▁רעד
leitung
denk
bedingungen
Tal
cznik
skabet
anter
dogo
דירה
pilot
.[4]
hasa
matig
109
nskega
heart
GOS
udur
ֲ
feed
Dom
niczych
OVER
pidi
----
irken
mmende
Poli
vilja
pate
גדר
שינוי
judi
vuosi
ilua
gesellschaft
hiz
tadbirlar
meet
ntlig
varme
domo
certa
informations
צפו
odzie
ietis
latan
dref
Tai
layarak
occasione
duce
-2000
clip
viesti
ishini
Una
peal
1970
postadressen
buli
LAV
legge
Latvijas
ovac
raksti
בק
▁אליו
klick
penge
patti
drama
ebant
▁לעבוד
ונט
zeichnung
▁לבחור
vennlig
▁צוות
logist
jawab
dky
▁תח
Hal
לשון
harga
▁פתח
quilla
personer
jadi
היסטוריה
LON
izzati
KIM
silo
baad
lingva
mhach
ilee
blom
צלח
Ut
ומן
tamisen
▁שאתם
trud
KOR
klid
qaba
boom
fanele
vanda
ISK
OPE
therapy
▁במקרה
niece
דמות
fesz
langa
feltet
ttuna
▁אימ
PUN
carna
3.2
association
IDADE
tawala
כוח
jual
garriak
ilmoqda
ILO
puhe
halb
cake
▁הצל
מעט
▁מיל
Kol
שתמש
eblaj
/03
WM
cih
TUM
finale
lakon
פייסבוק
LIT
ingum
krem
IQ
1989
komisjoni
▁לאומי
rumah
sportiv
dagar
given
gramm
dress
fulde
xal
Fan
laatu
▁מתי
teatr
Sesungguhnya
▁האחרונות
Cho
▁לשנות
dauer
annut
▁לבצע
kinga
cult
Game
DET
כע
ykseen
akhir
krb
LIC
trap
dunud
uksella
VOR
zteko
ALO
Wat
▁קומט
lance
תקיים
690
hotell
buku
desi
purna
Escola
ודו
berger
▁ואו
perin
נדי
ABI
/0
85)
txar
tamme
תרגום
BUS
שטח
8.5
=4
laud
rzew
מיים
diplom
comunica
מבער
poste
95)
square
WN
PRES
▁אלקטרוני
degi
owska
deal
alnego
teisiin
dilo
Comp
kammer
accesso
iskas
heiten
owskiego
קיר
Count
uros
brak
rzut
GEL
Work
דוק
372
auksen
▁יוני
Ros
hef
zdr
Tom
educa
komme
ellut
igual
ukus
YY
/30
▁ומי
4,7
CONT
SSR
ligheter
Fra
statu
krise
taas
Shqip
kapi
avdeling
centa
diklerini
▁במרכז
90)
puisto
GIN
GIF
salu
▁ומש
הגנה
haki
mentum
WIN
fler
ownik
baixo
EMBER
03)
▁שקל
spraak
fertig
leef
670
imizde
schaffen
annonce
politika
▁מומלץ
ISU
▁לקחת
ttavissa
▁שמי
אלה
iyak
czyni
tronic
fear
ittelu
-32
NJA
sunt
servi
LEK
koolitus
brat
wyf
porto
eriet
122
IUS
huan
60%
▁שליט
tiewe
ificado
MH
qdan
gumi
▁לזה
uttu
▁ווע
לף
MAIL
ראות
beba
save
CER
nedd
memor
BAH
NUM
Studi
▁המלא
עבור
יופי
גובה
overeenkomst
▁במו
dzy
krep
▁היתר
antic
ACI
aikoina
▁וְ
eacha
▁לדבר
Club
espace
08)
▁חוזר
בירה
850
mesa
utveckling
▁חומ
KW
כוכב
חזיק
HIR
▁מקו
angle
UGU
anlage
ונגען
olwg
elda
96)
momo
mung
njaka
habita
EIN
▁לקראת
▁קישורים
▁חד
portu
emplo
עלע
1988
skych
UMI
amara
340
Korea
deck
ighean
ukko
nacional
קטור
terrein
VOV
finanz
galan
chukua
burger
ongea
uerunt
מטר
making
aisiais
מבט
posita
turing
imizda
option
124
ביר
zeiten
ological
7,5
פּע
pair
▁אירוע
rota
jandi
kyk
massage
fahamu
rsatish
meyecek
▁אתכם
▁למש
cessit
teste
tinho
tavasti
telji
אבק
▁חסר
שהו
vyys
forskning
▁אמיתי
prema
ENTI
ממש
▁שעל
entium
kukho
stoel
WAT
ZAK
attuale
3.7
נציג
זין
saks
owca
thin
▁תפקיד
fullt
photography
ANDO
ional
טרו
olimp
ysta
366
valikoima
06)
shika
▁דור
joties
warna
ziti
urada
760
-1)
kode
TICA
geschichte
▁אישית
מזון
▁גוף
dary
ניג
RCA
kasika
gence
mium
parlament
Well
Note
/2003
boka
LEA
prywat
texniki
------
eficient
eanu
isert
ligheten
pato
bilde
soy
berechtigt
▁הפועל
importanza
ileyo
itatii
ONO
▁ברשת
utbildning
tumika
surf
vaihe
tuki
luka
▁כּ
wym
tyti
Best
tekin
gly
ollywood
03.20
guem
▁תיק
will
בוי
cso
stimmung
haver
וידאו
▁סיי
dumu
ראש
▁אזור
lnych
מרחק
▁האלה
abilidad
NOW
248
CHO
aaaa
ledningen
praktik
aireacht
RIC
cionista
filtr
rinda
vzd
zungumza
אפי
valmis
▁פעמים
asset
▁ואף
▁בנו
ERIA
associazione
liyini
bierz
klubben
serta
פנו
נש
giai
tavaa
mely
raigh
HIN
hant
וגר
▁מור
raju
yoyi
880
קבוצה
▁צריכים
explo
ttaessa
פגע
tenta
duire
▁נכנס
oskop
pustili
7000
יטי
▁בפר
koro
wszy
PEL
עולם
bale
וואָ
Pie
80)
dhani
וכים
mendua
ministri
▁תהליך
▁למעשה
Test
119
appelle
foga
Brit
EW
aurais
▁קבלת
lietu
brin
▁גדולים
meria
sambung
JUM
wege
חס
tsua
iranih
AREN
zene
llisuutta
activa
pokea
mouth
erien
tinimo
לאנד
quadra
DOR
ramos
EKA
וסף
sistem
toista
pub
evit
stien
find
klama
▁העבר
ragan
pakan
xie
teadus
osoite
Din
פיה
[15]
iteti
inami
prozess
dering
Bab
vuotias
landes
JAR
presidente
תיקון
aktig
usko
תור
gey
uerit
itty
\\\\
SING
baixa
wong
sprogram
zola
etc
91)
tyczna
רבי
solo
dell
URS
▁קמ
gab
duit
04)
Prin
ixin
tragen
TIE
kreft
liit
ooda
▁שיער
shirts
lipo
lisema
GIS
▁טיי
struktuur
ctva
summa
absence
-34
gyan
kleid
▁פּאַ
likleri
39)
forbund
itvijo
izacije
KSI
פוט
ירו
cepat
zunehmen
גורם
actual
מז
prod
מלחמה
JAM
CIE
מערב
▁נאכ
venire
NBA
omia
liyinin
sztott
קין
wula
Kun
ganggu
rozi
jata
188
kasvatus
szczenia
praz
logen
▁גוגל
ptic
▁מחדש
PRI
תמיכה
moqchi
oikeus
ברו
מפ
7.000
JT
foi
pleje
raud
positie
Forum
Sky
tywny
robot
tingimuste
eftirlit
mpet
נצי
ARU
teessa
8,000
▁טבעי
ynaya
udvalget
▁ביו
אנ
ionem
godi
kupi
קבוצות
MAZ
extra
okok
▁ליצור
ilmektedir
yahay
07)
tagande
dulla
וור
njih
utente
avaju
kysely
מם
86)
waga
barat
-55
רשטאג
hlad
pusti
Sil
puma
access
▁רוח
aysaa
מפגש
VES
▁געווי
eczki
glad
1950
VENT
bedrijf
83)
DUR
moral
levering
▁המשך
waj
▁הברית
prenant
pice
oleku
ליל
YAR
adapt
grim
ameti
Hol
387
חייב
020
ISHA
מנכ
halo
folie
anayo
essentiel
jevo
pande
jine
nijih
▁כוח
▁בתו
plassen
ovci
▁האירוע
Microsoft
messu
methode
sikia
lektion
kutan
TG
Mai
ouche
ZIA
היה
wide
Bor
technisch
hiq
stehende
▁ברק
issimum
jille
tettem
▁גן
Cola
▁בספר
▁בז
orio
mudi
ulet
אישור
brott
wka
שול
TAM
itinerari
Mes
ECE
tiamo
ritur
▁בינ
וקים
pest
ANCE
pania
tywne
linie
glejte
sexuell
turnering
cicli
riippu
redskap
נאָ
myndigheten
ruoka
▁הלו
EMP
klaring
turvallisuus
legger
durch
כניס
Pad
telling
Log
ingizni
jangan
עיני
pravil
ksiin
makers
verkosto
bira
▁באינטרנט
maqla
▁להש
134
srapport
TUL
lberg
bamba
polni
boken
hlut
izace
stehen
oidh
roku
punerea
seitig
animation
Code
wandel
armen
ettava
medicin
wiedza
forsk
genomen
manden
▁עשר
▁השנים
▁בחור
hamn
forbrug
סמ
pand
popular
cream
pesi
▁שיי
torp
guli
iyev
krim
tonta
כונים
ענער
alamu
pakt
ltaan
hoof
DSL
lipa
▁קרעטשמע
kult
hafte
zag
vaardig
TIA
▁שיר
Blue
materiale
rtasida
financ
wein
pais
MAL
hjelm
▁תרבות
gaidh
▁מסת
undur
סיס
prime
qada
mics
potent
Ini
wish
remmo
fact
▁האישי
מנט
riat
kolle
ישה
▁שמש
kontor
קנה
rescu
קוב
ECT
digi
ישראל
iadur
ykset
illy
kuvat
stikke
thik
מרכז
setti
MAG
enii
sev
ministr
shes
▁קינדער
▁לל
nehmer
▁לכתוב
onio
Mini
720
=5
viste
485
belah
aiky
wanan
357
brief
ragu
Paul
sever
cipe
WR
irajo
Stream
centre
jsza
umist
bedi
about
chain
▁מלונות
UCH
paru
4-1
▁המקום
CAM
plasser
_1
trimeda
gido
skjema
Drejt
belle
izazio
▁קע
KING
pracoval
ojne
פד
▁שינוי
117
737
צפה
styring
▁בידי
suom
applique
teista
riju
irodalom
yddiaeth
▁מענטשן
zoj
סיר
City
vraag
הפך
anstalt
klai
ימת
kvarter
LOT
פלא
4.6
131
XXX
veta
politi
uksien
ecido
wakil
lectiu
UPA
shah
klage
בין
RSS
▁במי
אכט
▁זהו
▁מענטש
cogni
lampa
vju
toiminnan
בצע
reck
ugur
kliai
isaa
נדס
barth
leit
pagina
OGA
1-1
TEA
Sho
עיר
That
osasto
punk
▁הקב
מאה
foss
chiamo
haku
SIK
▁גלי
▁והיא
safe
utuminen
gwr
rojen
suke
mandi
CIN
aink
יאל
OKA
fragen
▁נוספות
tingimused
▁כפר
dzes
bolo
וואַ
stance
▁במידה
yyden
▁הבאים
vielas
OKO
Suomen
וטי
ruumi
▁בשם
ahnya
fill
mitten
impl
Mos
afoje
internet
ICK
coop
lanta
pach
סור
1984
___
HAND
oral
kunni
sakit
pija
ljenih
locat
woh
existence
Alb
118
FAT
rahkan
97)
santa
mpaan
יקס
yolu
rzymy
WAS
lingar
342
AKT
▁פּראָ
▁ושל
stolen
hubungan
279
Master
ליים
Sex
sveit
schreiben
44)
masalah
ENTER
4,8
Austr
2.4
113
לנד
arius
▁המצ
יגן
lasku
אוניברסיטת
braut
sichtlich
590
aktif
Luc
filmer
EVE
panjang
hoitaja
▁אינטרנט
ilun
ליה
haug
NIH
SERV
טפל
רוי
Ing
iniuose
▁המחיר
imli
depan
Bon
PAD
yacak
There
scrizione
rimas
koaren
faire
gune
haran
hoor
update
▁הרכב
TOM
gaasi
RIK
qesh
ivamente
MAK
skilt
fino
stria
▁מספיק
dijo
lemme
qini
Thi
384
asutuse
Plat
KUM
bhal
legung
hyd
שני
DIG
▁עובר
Ale
epektibong
rapi
▁כהן
מינ
מיה
46)
ENCIA
pista
czyk
document
slev
145
mbong
ORES
kolek
gino
פרס
▁בסדר
traction
zieren
usele
ellyt
technika
pell
njeno
740
teeksi
ncies
היי
▁אינטער
sukan
▁שגם
tekniikka
129
▁משנה
▁פאל
▁שלוש
stwie
%20
ציות
brud
טיב
hooldus
wiet
piir
▁סוגי
Ray
talous
dug
agri
rojn
tafel
ijske
misessa
ohjeet
jdou
▁לאי
וול
▁מזרח
349
(18
AUT
▁לוקח
שילוב
vidas
baw
VIII
חדש
9.5
pating
▁פּאָ
4.2
felt
kindlustus
krieg
statyti
05)
gelin
94)
lerimizi
isty
chino
luhur
diana
valy
raithe
likni
peita
tallen
ריאל
zyc
lakukan
markedet
xhe
מתי
נדר
KF
ngkung
fassung
▁ערך
grenzen
alisme
PPP
UME
traf
szerkeszt
arrow
▁מאר
kyky
STAR
▁הפל
vanta
nizde
Mate
ganja
taisi
▁הילד
devi
RAW
miel
uwar
inske
פרש
kirche
keskuse
olie
court
ographie
kering
hanap
kassen
janju
▁הינו
itetin
dense
▁חסיד
▁שעבר
▁ניסיון
▁שער
rodni
statakse
▁הציבור
bava
teinen
▁רגע
1/2
371
גרות
Market
David
SION
37)
baby
oikeuden
ajiri
RZ
jatele
hiye
flow
palle
avdelning
tambul
▁ענק
tjeneste
ELO
▁חברי
Skyscanner
shukuru
mbuk
priek
▁מקבל
oyat
oaie
סביבה
Jak
investissement
centimetr
ignon
udesta
AMENTO
alcalde
▁התא
training
nagy
zining
stev
podstatn
165
thra
halu
schal
TUN
Bay
szeit
planer
▁האחר
גזר
1.8
▁װ
lize
Camp
SED
MZ
ITS
raich
נעם
bura
צרפת
djela
▁קונ
קסנומקס
plej
promo
skrav
יטים
maschine
isatie
▁מאשר
▁בקרב
▁עובדים
iyum
kill
עסט
CENTR
yard
letti
זון
ycznego
סטן
telemaan
szenia
ESI
asiantuntija
לר
מעמד
rrr
tissimo
lioni
talouden
istiske
155
krishna
wiesz
clear
▁לשם
topic
vinnu
detail
Audi
Radio
environnement
▁לבן
310
▁געווא
zhou
buhay
rejse
ojums
לידה
▁הצג
philosoph
BIN
NOSTI
מכון
obraz
▁ואח
Tek
gabung
ttelin
װ
monda
ERRA
ittele
plikasi
loup
uojamas
שומר
fryd
lister
גאַ
389
athiri
gall
KOV
forestilling
hallinto
alternativ
procent
cku
▁בדי
fila
schef
paja
IDO
33)
AKE
eeda
rohet
szony
dhara
נקודות
lasting
suhde
grid
ioara
toodete
lular
ambiance
paino
smart
gevoer
NIM
(19
mates
JAK
▁ווערט
POL
Dec
ilmoitus
cendi
pois
kilo
affiche
▁אָפּ
zila
kuru
כביש
oldvideochat
julkaisu
galing
VOD
golf
359
NEL
APE
Etat
billede
filter
עצב
gagawa
THE
420
sorozat
arena
ODI
baca
8.000
wyth
linio
milit
▁סק
▁טראמפ
utfordring
אָס
▁הני
Ef
יוצר
hassa
4.1
▁הבר
fail
kjer
vaba
אנו
systemer
QUA
▁אליה
נטר
▁לצד
arrive
116
cation
מונים
ciano
IEL
endesha
titul
ריכט
anareo
pansin
-52
iensis
zib
תחומי
35)
SX
izando
מבר
AMO
▁הגב
isissa
rentur
IDATO
2.3
bahar
▁לעולם
jika
wirken
paha
bule
Fit
bago
ificare
זית
ckich
ufficio
said
bici
sekolah
strut
tanje
quista
CUR
stane
IVO
תחבורה
schappen
▁הגוף
Build
leiter
mount
rehabilit
cidi
umque
dommen
ikusi
tiunea
▁קנ
szczo
חוסר
schrijf
likheid
yjne
cilla
▁שיווק
▁כספי
0.4
hatjuk
ריאה
occhio
Franc
/2018)
riaus
tutto
456
סכום
אושר
EME
dhibiti
▁המשפחה
93)
barkeit
תום
dessus
assist
politisk
indra
אית
cp
drept
EIRO
patah
oituksen
278
שמות
dienas
moji
EMI
escriure
vergadering
antsika
qram
prawi
▁שכן
telek
gesch
ופר
khar
njenih
SEK
175
balans
nnissa
adott
82)
escriptor
יהו
ovqat
verden
כשר
חן
asztal
riste
lijst
34)
llari
pisano
kjes
vitenskap
ריס
tinggi
שמים
3.00
lamaya
industria
Paper
chisi
pill
nywa
▁שלושה
▁דירה
דח
צילום
velle
Full
znej
tutu
turva
hatta
Service
voed
okhoz
-500
stukken
zioaren
hinta
pozycja
ained
bih
inayo
pour
JP
monta
lump
OLL
briga
pove
competent
FIC
Not
alum
maso
צומת
ideal
▁האל
weil
Assad
ndid
מאל
TTE
orno
skripsi
vonta
geleid
ettem
טכנולוגי
Rock
▁בהחלט
SOR
shab
dinta
ulungan
puka
1.6
JAS
DRO
likkuse
301
298
undar
▁מהר
byen
mbin
tauti
stanie
itwa
piirkond
ywanie
tehnika
samband
▁משתמש
amministrazione
▁נוספת
werkzaamheden
inneadh
▁בסוף
suojelu
▁החדשה
388
ilha
essaan
gold
yaasha
gazi
djur
mbana
tapos
▁בעוד
דין
לוגי
שבת
▁המא
yaka
fermo
TEX
kirurgi
drog
89)
▁מדוע
▁קבוצת
national
▁חס
tulog
janak
▁חופש
illant
כאב
gxi
תחרות
valdkonna
prez
לג
More
0.6
liyoruz
gadi
zinho
אנג
pey
41)
deep
790
regnskab
tettua
alaihi
ערע
tawi
anomena
celer
CAS
שפיע
ijoita
energi
מיש
interromp
nehm
332
כיר
gamot
435
cao
נאי
מדריך
▁עניין
KN
▁בשעה
DIR
FG
registro
ARY
003
click
impianto
▁מכן
eyri
figura
indik
דרג
strar
sivat
יקער
olaj
vula
milli
tiivne
endis
2.00
formand
aglia
▁הטבע
iliselt
keeda
aois
IOR
171
▁אברהם
לפעמים
operazione
[16]
utrustning
▁ווערן
▁גייט
פעם
igante
fikiri
kunden
vijesti
nduse
▁ייִדיש
מילי
ESCO
tsioonid
menni
vrije
leyin
1972
verfahren
ttomia
88)
lack
fadh
MOBIL
kufa
zeichen
kosta
adolescent
ETO
▁אָ
waran
buff
aynta
niejszy
tuwa
▁חז
UGA
ntium
אנס
brudd
Tube
cioso
gailu
201
sikhathi
▁התורה
▁יוכל
abilitat
wissenschaftlich
▁למעלה
kitab
▁אינם
▁בכך
kwenda
שורה
augs
piirkonna
▁בעיני
▁המג
hetik
stjo
merke
slovenske
tyminen
laigh
inaweza
4,4
ochtend
ONDA
כשיר
cresc
1977
Andorra
משפחות
Nam
salam
Qo
videnskab
ignan
NAM
arske
zanim
▁פרסום
pezi
50.000
norsk
brek
altre
DEA
tishi
gies
cock
txt
teck
00,00
מרי
what
rijke
שיטת
הלכה
LOC
chap
תּ
Let
machen
leider
▁פועל
zile
original
5.6
(5)
▁החינוך
-42
PUT
quier
qol
▁יודעים
IGE
334
▁פורסם
taulu
▁לחצו
varia
heq
EMENT
▁מדינת
Mir
postadresse
*******
monaster
▁דיר
ininko
זול
קדש
Kir
njom
NEK
▁והש
hiyo
keten
lihan
wehr
hoff
aftale
COR
ffor
tukan
kilde
izmo
נסה
khan
trygg
גבר
filia
JPG
290
ketten
God
0,5
prowadza
▁לשמור
miyorum
iglio
evro
sivusto
DIO
oskus
VERS
tietoja
camera
kese
▁איכות
banding
kuthi
grave
trzymuje
uddannelse
Kommission
40)
igoj
safiri
BLE
3,9
133
kuvia
thyr
corrido
Esport
kuqala
oise
1985
cjami
scherm
schie
obec
sendt
ANIA
Edit
cibus
utunut
fanikiwa
▁מתו
llisten
skrid
vask
apte
cidade
osok
kundi
exercice
IEM
arreta
98)
besi
systemen
347
יחת
tumaan
math
takt
KATA
kerk
2%)
▁מוצ
uuuu
RNA
▁נאָך
tidningen
lerimizin
עיל
-33
ציוד
מינה
tohen
5,5
Kalau
avaram
vajte
endid
ליין
kendt
MARK
metru
Was
EVO
gation
istika
▁לקו
szuk
chadh
fati
track
organi
bair
merkin
OFF
PRA
▁נסיעה
דרש
ELLA
טס
369
Mobile
tologi
boden
anvisning
ungguh
87)
belo
broek
essere
יקע
OVE
DNA
גנים
fft
1979
אקט
basis
▁משפטי
stavili
▁חצי
bescherming
▁אריין
isci
bama
▁ככה
▁ואין
situasjon
incontro
PIC
banka
zentr
fugl
IEC
schuss
teller
tuminen
6-1
yordu
mesti
Wer
strada
▁קאר
hash
קנים
utvikling
huolto
NEN
terie
rechnen
Tamil
other
RAC
fully
kumen
passion
שתו
443
ificazione
hage
hjul
qad
ferencia
▁לקבלת
therapeut
▁עורך
kovou
sarjan
Ran
thur
grepp
AIR
entusiast
werf
Start
-2007
bincang
SAK
detta
aalaha
וטר
fikia
bremen
beskrivning
latura
gondol
forsker
ריב
368
dingen
queira
▁מתאים
envoyer
plab
▁לימודי
rachadh
leyerek
kinder
▁האח
nefndar
GLE
▁מוכר
▁מאו
JET
TUT
iola
krot
blich
pelit
spiele
-36
Hotels
inzi
actif
▁יקר
▁כוס
▁כמ
7.00
סטו
graphique
condition
zap
tissima
שקע
vonat
tiwa
וקה
natur
geschiedenis
Chan
kutu
1987
טות
givet
HTML
KLA
schwe
folio
batas
tarak
papir
Sloven
289
נוף
prisen
uyorum
knapp
Siz
boer
hammer
kaat
coba
punten
מנ
DOM
communica
זיקה
tojams
MANI
דף
מטי
American
LOM
495
skort
ARGA
mellett
גברים
LIO
kileyo
isera
ovaly
Tam
dako
EAR
chasi
JJ
HAK
hjemme
EKS
▁סביב
▁מיד
ptica
korv
CTA
konstruktion
cello
nicama
kaut
▁לעזור
▁מספק
teoir
רוט
esterno
taneet
RAR
manni
aynaa
-150
situation
posten
onate
sorti
Pop
Wie
קשר
AAT
ERING
zata
ינער
vojo
ladigan
LAMA
גיא
patuloy
GAM
דא
דרה
habitude
senti
Just
▁לפנות
אָו
klara
endorf
תקן
verseny
BIS
bibi
biler
353
toimen
reya
ktet
256
VEZ
tiap
▁טובים
4,9
venant
מדיה
aattori
kapp
Protect
SUM
contro
lapse
363
tusega
cencia
moder
kasten
zeichnet
ehdot
wok
shell
rriak
joja
▁רואה
נגד
kkede
▁איכותי
ליש
Tbilisi
UZI
vuotiaa
rujuk
dyk
tasid
laganje
▁השם
logio
3,0
4,6
faciliteter
Diagnos
ddf
katzeko
338
tykset
binding
yritykse
acompanya
(((
peto
elyje
bolu
tietojen
@@
ministeriet
pakka
787
ngela
sindi
▁באש
4.00
fuatilia
unting
path
/50
8.2
tzako
airean
jakso
ulatus
ILLE
biskup
shuv
ustaja
png
mmig
opia
plaz
147
Peter
IKK
sikiliza
▁מצליח
spetsialist
שטעלן
▁יהיו
espectacle
2021
kkia
ctos
tyvi
▁הגר
Design
improv
yub
OUS
dracht
geir
כז
▁רפואי
פֿר
bogen
schaften
piac
137
DOWNLOAD
bruch
גורמים
▁כדור
tension
kaarten
393
Imp
uyoruz
engine
vatele
aksjonen
KIL
lehe
377
תכו
▁וועג
▁לאו
jskom
sebenza
rreko
▁קידום
אַקט
ulator
andre
blanding
מבנה
baini
Alike
liwanag
ooni
GUE
czesny
ttavia
creati
114
▁פרע
aften
337
frist
▁הכנסת
▁פרופ
Cloud
kilder
undangan
maskine
faat
regionen
Zdroj
wenang
glej
sidig
kyl
iisii
ngkok
varna
ringe
KZ
קשת
ggle
tevi
andishi
iPad
/11/2018
registrer
הקמת
yhteys
illeadh
annan
izou
45)
zakon
ZIN
92)
FIN
zand
stici
voeg
▁דאנא
Innen
פקיד
staafu
Sab
BEL
dhana
games
6,5
cheza
kleur
3.0;
121
FW
חמישי
herbergi
prosessi
קיימת
zinha
gebruik
ESH
vajadus
eeuw
CW
▁לומר
ksilla
storm
▁הטיפול
פיות
forsvar
7.0
נין
לוק
grind
Big
pesu
yrityksi
EEE
356
haupt
sufficient
ULE
nostjo
titel
cykel
tarin
gelassen
nictwo
▁שאנחנו
iwas
מסחר
metal
MW
▁לינק
VIT
▁אונטער
005
kkeiden
TAJ
individu
International
quera
qvist
ologica
▁מאות
172
ganga
+4
idean
tulis
סות
prova
tasunaren
heshin
LIV
wissenschaft
▁פרויקט
▁לציון
raid
▁פארק
Roma
RSA
pall
kaisi
להלן
policy
skriuw
menes
1-6
boz
poana
ketta
JC
fyd
ואלי
putus
▁צריכה
▁פתוח
gusi
[17]
bideak
▁שונה
146
activitats
ingumo
okuthi
intelligence
konsulent
adeed
kusta
▁המר
הרג
דעת
באר
RUN
סכם
Alex
פלסטיני
plau
Mis
kiewicz
usser
vrt
yadii
ientes
EDA
komitee
sprochen
ciach
trekking
leniyor
>>>
3-4
▁הזוג
▁פרשת
בלע
beskyttet
padi
biasa
Balt
מינו
געקומען
vragen
060
סקר
treden
kedve
susi
VED
יטעט
בחן
talon
▁כלומר
▁סעיף
TORI
tolera
andha
scritto
werth
prostred
nnosta
ttelee
servis
136
teckning
csok
38)
/2002
Napoca
REK
▁השק
ngkak
csap
▁כאילו
▁כאלה
tooda
▁שול
תרחש
פיס
drum
rzec
xml
wraca
ckom
TIT
339
witch
ziert
1/3
יפן
392
▁כניסה
144
folyam
period
חוויה
integr
reikning
395
velmente
DAM
ziak
icorum
UJI
IVI
elevat
צד
▁מערכות
hastighet
eneralforsamling
aatti
plete
MAI
rope
hoidon
siapa
+5
sheni
entwicklung
eiben
drug
tamisel
zisz
ljni
▁הללו
agung
avenir
blomst
000.000
iklis
ITAT
kommt
wurk
leysi
tycznej
Bru
פחד
▁אָנ
alderen
aksjon
yuan
pv
870
naise
frac
▁תה
posisjon
gesproken
psykiatri
grader
▁תפ
EZI
kkende
RAP
▁הכנס
0.8
▁מאיר
ALLI
desh
paketti
strek
schreib
tendent
igien
kkaita
JD
pladsen
3.0
czesne
toihin
esercizio
tender
▁בשבוע
nesc
projekti
kick
USD
inkite
daily
review
▁שלישי
HOL
154
feest
▁יחסי
netz
konsult
▁אַזוי
XU
ARIO
astronomi
izadas
propi
luvu
soon
iseret
bordet
hanam
fonds
222
/2001
vinder
ndrysh
vidu
Eco
odon
stveno
masuk
-2005
▁שאל
dahl
tawan
keria
flower
▁הראש
redaguoti
mmmm
▁במחיר
▁משום
ynnu
tkazib
שמאל
381
▁הסדר
unico
preso
salah
skeho
straf
hoone
takat
GAT
▁הסת
RIP
Espanya
OJE
▁סול
ANU
marathi
zce
handla
yzm
שלם
mette
vimus
Of
invent
mizden
verblijf
solv
rechnung
▁הישראלית
oinnin
dinga
???????
acteur
344
Ly
▁ריי
1-3
iirka
43)
▁בגיל
teket
1,2
pupu
szol
enstein
vulling
attaque
sdorf
niec
מאן
kusan
tropi
▁נאָר
▁השר
spreek
tsid
127
bahay
efekt
route
plac
kalbi
חזיר
badet
דרוש
chado
כד
szenie
puxo
corpora
minta
tinti
vusi
WAK
tiisa
cella
lagun
viya
studium
▁לצורך
30,000
▁פונעם
SZT
[18]
posicion
HUR
▁חברים
ooo
slipp
iisip
296
אול
kowego
▁פרטיות
▁טיול
lunio
ynghor
▁הרש
Sim
Aeroport
▁ידוע
bail
modi
varuste
ovao
▁מכיר
financi
fiant
tavate
ולוגיה
יקן
eeyeen
0.2
DIS
▁לעומת
Hey
▁צד
1.7
aquests
oitettu
torem
llur
luje
ריד
139
ducere
garh
desk
▁צעיר
krip
myndir
Kad
panta
▁חוץ
tissimi
prire
continu
jimu
▁טל
verantwoordelijk
suchen
nitz
bakteri
&#39;
hegy
מיק
povi
garten
NAI
▁תור
markkinoi
▁חינוך
▁בוקר
970
masligi
liver
alaking
iteiten
licitud
funga
SCI
tuuri
zanje
(12
שוט
▁באות
phos
siirto
hram
flict
gwyd
gged
lyck
csol
arstvo
gjald
fasi
haidh
rekisteri
Emp
risidagi
chick
Informa
ologique
ijk
operativ
shore
rilgan
naendelea
DHA
mbok
ality
▁הסיפור
tiedosto
fandi
1975
lmoqda
geria
פריט
mAh
54)
דון
tiikka
ghas
araw
lanjut
/22
SHOP
venlig
iwyd
izuje
adequa
NIKA
vaiku
▁מחבר
lasse
paste
aspx
daryti
iausia
ATS
3.3
לול
cind
228
respons
avuus
טענה
ckou
378
Undang
neuvosto
agentur
tambua
TAC
artista
erius
sposo
beretning
688
kkari
havet
ilised
puter
0.7
TUA
פורים
iskais
▁קאנ
glass
CCC
ְּ
uesve
schicht
aider
▁מפת
פתרונות
casino
▁מעולה
tuvieron
admin
ענק
suori
ליות
brem
ovice
בלים
zusetzen
▁שמן
aliya
feil
▁עורכי
ISTE
Stat
isilla
aggiornamento
151
ROL
▁שלמה
kiran
AGO
סוג
עיקר
▁גבר
Miss
ariusz
▁יולי
sisitiza
▁האחרונה
▁מישהו
זמנים
▁תואר
ollo
skrip
accepta
skjerm
feydd
labot
utiliser
PIA
004
348
hnout
crimina
ritz
kundig
inizin
255
connect
5,7
פשט
▁תקשורת
hjem
ADH
ANDE
Asocio
נוכח
groei
JN
WB
Fac
3.8
וקי
דיל
shindwa
poly
spalv
ALDE
argomento
rauta
baptis
turk
▁שינויים
Hand
▁מבקש
Rozhod
יכו
treiben
-38
jack
361
biye
MIC
sgrif
WAL
English
lagos
זכור
Gene
▁לעמוד
Bud
שותף
רכיב
plata
idhinn
7,8
▁כלים
movie
Bol
stub
ZEM
bundet
vuutta
wurd
express
▁המון
רר
volo
▁אנא
izeaza
פסק
132
zub
▁עצמה
▁היינט
קופה
fata
בוט
aktiiv
TERA
magazin
uotos
autore
reiro
liberal
▁בחדר
lekua
stamiseks
szok
▁עסקי
▁קטנים
890
אוכל
owiec
855
▁אחריות
6.5
וכח
011
▁בקו
GRO
HARA
uliza
itatile
LEV
eceksiniz
6,7
ישות
7.5
CEP
GUR
xesha
jesti
PET
STRO
mantel
CAP
zunk
▁קני
YG
cionin
Christ
dled
[19]
▁התחת
▁תוצאות
ביצוע
מאס
SUN
GEM
crypt
seminar
mhain
kriisi
vastus
KEM
ONU
syukur
horf
Vor
פנים
tivamente
rganish
surat
▁בנק
arzt
kabin
arter
ovanou
where
branschen
drastrecha
ukum
simula
▁אוויר
proksim
▁עליהם
ווייַ
logic
Kha
xha
tengono
headh
volution
niemiecki
tehnic
לוט
teori
zito
אמת
klin
OOL
OKU
sprak
cool
hlobo
niekam
function
gradnja
158
hjelp
▁רגל
יאַ
persoonsgegevens
▁כנראה
garde
▁האינטרנט
sendelse
aqiiq
petit
agtig
רמה
manje
copy
אָפּ
▁הרא
ולות
widz
ljivosti
wasili
מפל
signatur
XVIII
attenzione
National
tamassa
PIE
veido
▁היטב
▁לפרטים
lokho
vaatteet
giem
CCM
typer
ARTA
schoenen
ruba
ropol
gwyl
clan
Now
sziget
timer
angebot
tsaina
structure
YAK
מתח
KTI
uzet
npr
istys
megy
passa
LJU
capa
▁יעצט
speicher
ANC
raten
ljud
administration
שיעור
gelegen
ticamente
ibhe
spieva
avantage
ampak
AMPA
Gold
Bot
meester
TIKA
krati
donis
▁גרויס
^^;
Data
YER
PAL
yaq
152
VOL
verksamhet
udvikling
▁כאמור
תקציב
pinta
Membuka
mitasi
zijde
itzada
aquell
ציר
crat
טבח
Nar
vrh
פסיק
kiej
msebenzi
obchod
West
kendelse
tengeneza
libro
887
תוכנית
stykke
microsoft
fattning
dock
tanggung
יעו
utatud
jaama
▁זיינע
amerikanische
hantering
bory
pied
LR
brechen
5-8
:1)
ferie
▁בשנים
טכנולוגיה
ziko
rekiko
sicherheit
beheer
karya
Kre
hija
▁שפי
skyldig
Serie
▁סופר
▁מצו
hlaup
Anh
kaling
izacijo
ENIE
גלה
tatem
החלטת
+0
163
drop
hluta
פרק
PSI
▁כותב
allotjament
▁ייעוץ
ouvrage
EED
ffar
ndry
paid
▁מבין
ininku
ologija
DIC
ONY
maailm
▁להר
▁קומ
erbjudande
▁מפני
קצב
▁אפשרות
phor
drob
ENCE
601
▁בזה
ichean
Rom
eeyaan
monina
hatsz
CEO
PIN
UBA
747
cour
talk
Pass
papier
hrif
utilisateur
9,99
oppervlak
kinta
▁לבדוק
/2000
▁המחשב
stoupil
aviy
darbo
Esc
srebrn
fungwa
(6
178
klej
ugnay
-47
▁קיים
minyak
wunder
forte
ulong
ערב
ovanej
klju
aasje
כיל
fase
yniadau
katerimi
גענומען
▁השח
mitglied
mnazi
Bukhari
גרו
bayang
▁בשנה
verta
hack
▁אויסגע
hudhu
dikten
konstrukt
▁הַ
null
▁למח
STEN
player
schritt
steroid
תיאור
ביה
206
143
(...)
הוראות
brana
מרחב
Anna
▁במצב
IKAN
imizning
princip
ERTA
ibilbide
hospital
ysgrif
napaswa
agence
anyagok
panje
TANG
▁תג
matricula
WP
1960
kevitra
▁המק
ttoman
kulttuuri
ATH
203
kaste
pladser
ejoj
qit
gnac
GON
wolu
▁דרום
דלת
לש
lektor
ESE
▁ישראלי
thathu
issimus
ONDO
orienta
▁להביא
▁מאנטאג
▁המה
▁לקנות
cosa
▁דארט
תגובות
aquestes
כמו
waji
eindruck
koht
atorul
mbaran
einket
alueen
קסי
ebilmek
isuuteen
▁המרכז
מיקום
Model
liha
ורו
thema
projekte
▁וכך
▁אכן
fc
6,6
bransjen
lassung
148
kanie
bumi
shirye
tvrdi
stora
חמים
mulo
▁הקשר
WAY
ZIO
חלוק
Smart
achtig
Hub
realiz
YAT
izmin
ghadh
appoint
skinn
african
187
▁ברחבי
lisse
▁אוהב
toimittaja
funde
YouTube
▁בעבר
▁חובה
manis
infektion
wyneb
דעה
Bos
prowadzi
cijske
brow
▁בשר
EMBA
beke
stedt
morgen
Class
analytic
▁ניתוח
ziel
amaha
▁דברי
▁דינסטאג
יצירה
fahrer
digital
mmaksi
5-1
▁חדרים
טינג
kalenteri
OON
yrer
Space
חשוב
מפעל
CAL
blogger
TIVA
stavljanje
keena
myndighet
arkiv
vloei
ssakin
beurt
ztea
▁גאר
ENO
▁שצריך
BOT
פייה
▁ארץ
stunden
HIM
disciplin
LJA
rolle
ingresso
baarheid
planet
uuf
informasjon
מוקד
▁שטח
MEL
transfer
observa
guera
דאר
רוד
mbali
▁מידי
moedig
manager
YH
obligatori
teltu
169
▁במה
Ham
379
profession
138
פרו
iseren
עמק
צדק
▁באותו
zetek
OVI
149
punkti
lateral
utul
זכה
jith
Spa
5,8
jskem
mosios
zoval
zabal
tilsynet
nature
▁מבחינת
▁ביצוע
avour
galio
madda
ghair
▁בכתב
Tidak
vnica
cession
ענג
משחק
701
▁לעצטע
EJA
usius
nameya
1983
מורים
fona
ohjelman
hlav
440
saari
gestion
valvonta
ענד
lectual
USTA
▁המכ
jomis
materiaal
PUS
forandring
hasta
runner
MEK
▁כלפי
חודש
▁מסר
ורש
prinz
ניע
297
189
chette
ותם
שמע
▁ביקורת
Grand
ravan
Anti
▁שאי
ttomasti
GUS
▁בעזרת
shabaab
▁בגין
1978
artiste
sarbete
אָד
247
vermogen
angsang
legia
LUX
diisa
TCH
bool
▁ובכל
profi
kell
klart
▁מהו
tasunak
דלק
forslag
pitia
▁המצב
Player
worm
תוצאה
equilibra
viranomais
ULO
ירוש
Deireadh
▁לישראל
פיי
▁כעת
vasara
eswara
VITA
▁מלאה
puru
▁עמוק
667
puolella
wiecie
משלוח
dotti
furahi
INGS
dagur
MINI
קם
bergen
glez
virasto
12.2013
ARK
BIZ
ולוג
alaikum
imper
▁תוכנית
selskabet
ponto
Uz
CHADEMA
▁הודעה
sojen
Drive
brew
▁שהיו
zuka
instant
Ord
stich
▁ליב
tavalt
LMA
artyst
wuh
estructura
CHU
lepingu
LOW
Pub
0.9
202
fordern
tegemea
CUL
jiri
rzecz
Ebre
which
שמח
zingen
niejszym
אנגלית
nensis
prawy
GOR
katalog
liike
לאנג
ccup
fada
greina
align
205
Ras
fuhr
izimin
rinish
▁להמשיך
betingsten
1920
gyldig
Dienstleistungen
Sau
setter
2500
Holland
▁רוסי
postavlj
publica
ilebilir
kodanik
tajia
LUT
AUD
grze
ehrt
intro
husu
nutri
turum
dhiga
רוצים
personen
resor
cikkei
▁גלו
nutia
tutkimuksen
blue
ונס
090
weeg
iselta
dirib
perat
rahman
520
wody
esport
XY
zinga
muligheder
upaya
stimul
Asia
arbeidet
▁קשור
funkci
dioxid
dienu
חיבור
tumisen
לחם
celli
heel
jskich
▁אחוז
225
forhandling
standing
חנויות
varsel
bukser
Bild
janski
367
draai
lashtirilgan
ministeeriumi
מקום
strict
multi
haq
helyettes
siynau
rekening
7,000
177
folia
ריע
oniston
▁מכבי
OMS
bahagian
posed
fundur
▁שווה
idah
esquerra
malai
אבי
tjenesten
מסלול
pitan
GLI
▁צבי
רומ
אנחנו
gnant
kthim
bibigay
zovat
jalni
קלי
▁לעו
▁מקומי
foot
miasa
dzim
ireadh
aktiviteter
▁וועלן
שירות
conscious
מיט
wering
Download
aalselt
נחל
isempi
factor
חליט
358
LECT
408
timme
IBI
kluz
שׂ
דוגמא
regula
duzione
Good
סופר
אולי
okuba
thuk
▁השלישי
flet
▁בפייסבוק
▁דואר
cuta
usapan
INDI
perioden
טת
שולחן
ebilme
ISTI
pedagog
determina
551
Prim
▁צעד
1%)
ofobi
מלך
SIT
ierul
dannelse
ילד
פאל
8,9
loft
EER
palveluiden
hew
▁שיהיה
▁בשלב
plug
▁בסרט
בחינה
tiivinen
kolleg
LTE
ותיו
najua
koval
liseks
ilerek
יצירת
approccio
equivoca
bedarf
irtear
owcy
wale
mmalla
▁מוצרי
Gro
=0
tutkimus
eyim
kaap
צמח
157
!:)
הסבר
sitter
kelet
owskiej
sfrist
7.3
timen
▁האש
studi
ksessa
kampioen
ויס
▁מיוחדים
yyar
Ong
▁משחקים
iseanna
▁היד
/12/2018
ismului
thola
EAT
ladda
forretning
anisha
אפט
RADA
vizyon
ovich
bonne
warm
schul
ecund
explica
utusan
foorum
▁שפּ
tanong
אדם
השקעות
ומו
iyeke
qey
stofa
KIS
monte
▁בחיי
yitir
▁המים
aastase
ghar
טוי
▁האמת
אביב
מקצוע
efnum
skjorte
odpoved
building
775
vuode
jaligi
Kaap
▁בתור
מול
159
PIL
185
mong
▁נגישות
▁שכבר
gizo
Vel
president
עזרה
dique
▁בײַ
khoz
agatik
▁הלא
▁לחבר
spillet
bibliotek
avaldus
Cookie
קניון
havan
yoq
laithe
TQ
company
satunya
examen
788
haastattelu
kaartje
seminaari
▁בדבר
rossa
1.00
psat
605
6.00
▁סב
אוס
coach
vuuden
masdan
handi
▁יכולת
▁הכולל
gull
utstyr
sistema
▁מיטוואך
▁לגמרי
▁הצליח
Mont
benduaren
kuptim
דד
dnevni
illah
iesiems
kakku
nizin
קטע
erfolg
טין
meddelelse
141
kiston
mungkin
acyjnej
=23
zaliwa
gegner
▁מוצא
layacak
2-1
bekend
special
width
szent
▁לחוק
stemming
▁סעפטעמבער
Richtlinie
9000
▁דארף
וביץ
ajuntament
▁אצלנו
Page
▁לבד
izzate
nafanya
masse
usage
▁ומא
Prof
צרות
NJI
Mb
frihet
Amazon
fariki
ARO
pinna
quette
▁ממו
sopimuksen
kandi
Agder
AAR
ROG
zole
konverents
perioodi
rijen
SOS
/7/
▁יסוד
ציג
ottaja
Vai
BLA
archive
טיש
374
Point
opplevelse
קטיבי
kovanie
Union
onesha
maraton
▁פלי
grab
witz
סיכוי
iklus
schreibung
blir
ohemi
cter
bistan
battere
kasser
mberg
עצם
לעג
eretur
tzeak
GHz
204
timiza
sluiting
NAL
▁לבני
stenen
sungguh
fox
dhaaf
adiisa
komis
Wiki
kinti
consult
miehen
Script
יוס
ysis
ceiro
helyek
ִים
mmissa
nivel
cense
tokset
ITAS
ובס
udhu
מפי
HUS
zeichnen
takatifu
Istituto
tirgan
PUL
kurssi
חשיבות
brus
istico
ANKA
▁דל
ravin
WEB
tatni
deiro
kuntien
feta
DZI
tetett
loppet
yuu
flix
ROP
רייט
tirilgan
דיא
Andre
קיבוץ
vinnslu
gadu
[20]
▁אותן
▁אויפן
בּ
המלצות
ratan
llekin
▁מפות
yklos
▁נזק
8%)
▁ירוק
rapat
gression
5.5
fashion
CET
white
עדיף
▁מרגיש
streng
jevoj
Rad
-2019
gerichte
▁אינעם
גוף
oikeudet
עמוד
▁עקס
isuudessa
▁המרכזי
oglu
osfera
assis
aastane
REE
urgence
ttavaksi
wendung
messi
catur
angalia
▁קטנה
▁תשלום
root
▁יעדער
analiz
▁אלף
lliseen
.000,00
Program
quran
unuzu
vetenskap
AHAN
wriaeth
ליכע
alimentation
kedett
lanacak
lokhu
UMP
▁הגל
thach
irnar
קוס
braukt
supra
BON
aniniwala
ZNA
235
איי
baserad
izaci
vakuutus
NAD
pause
סין
didit
▁בלוג
summer
ghail
439
bhre
גלים
פּער
ambient
▁מתחת
liidu
ANDI
950
fiks
▁משמעותי
הוצאות
▁הצדדים
keskuksen
EIRA
ticket
jaribu
ampiseho
IQUE
koulutuksen
krad
▁שאת
iskus
נכס
PLA
ETU
yilda
kirjoitus
masina
joog
ruv
ושם
kaupunki
cadh
trick
beleid
397
dwr
ENDI
▁הולך
1986
LLO
UNDA
AZIONE
Gasteiz
▁עבודת
▁ורק
eivel
posisi
rohen
innovazione
438
Natur
zaman
politiikka
finden
פנ
dodd
krive
נטו
MIR
Linux
WTO
derunt
bhan
▁אשכול
Mel
RAY
valec
ierenden
tetni
stiden
433
ווד
390
STY
andri
ניצח
bygget
▁מסוג
552
habitatge
tenberg
uiesc
BJ
פארט
חברות
gunean
direktor
tinget
ktsiooni
ligiga
publi
2025
kulam
RID
LEG
draget
▁היהודי
ספּ
Off
▁צווישן
▁חיצוני
liikenteen
teritori
Band
escent
Gri
kajiem
סיק
gegaan
vnim
gorri
Amb
SEM
bf
effet
heir
stanku
flat
6,4
OVO
bashi
iranjem
dekstr
חנו
stavitev
dobrovol
anssi
מבו
דס
URAN
iteach
406
▁געזאגט
tivni
ערה
klap
werten
produkte
itheach
▁המז
hatan
kompani
EIS
lipokuwa
gniti
muuseumi
sopimuks
terror
sprong
njakan
loob
8,5
▁חלב
itheoir
programmer
gyilkos
▁העור
paikkoja
▁בעצם
ifying
dijk
KAH
4.0
2022
Vikipedi
ipotesi
Unione
BUD
korraldus
sugli
1944
stempel
akkam
נעל
Brabant
teatteri
quvchilar
ANTO
GPS
מוק
9.2
kovic
1600
____
iramo
encja
AFA
gunea
▁ייחודי
(!)
▁השאלה
mieji
iridh
ורא
ceanu
TARI
UKAN
impatto
161
▁המפ
achais
kaava
1976
LEC
gallery
zzy
pender
kumppani
תוס
Cycl
▁האָ
398
מניה
▁בריא
Malaysia
found
mantas
chilari
BUT
IGN
6,8
black
izol
ארוחת
intero
klipp
מסורת
לוח
proszeni
▁מהיר
schlagen
cafe
טיפול
IDH
aiatzaren
kistan
BIA
RMA
leido
ecekler
strate
ycznie
phezulu
szczu
שקיע
accelera
jitokeza
▁השנייה
EFE
luvulla
change
kommenden
▁זאגט
foar
Green
וואַל
▁הבלוג
למו
Dev
CIS
▁זוגי
koski
ationis
ellus
yuq
835
pravljanje
hlala
ישער
קסט
ומב
sgatan
teenistus
havia
ratkaisu
terveys
fhe
faqat
995
Assemblea
biologi
ltiin
▁מזו
kampen
End
heyr
EIT
ljak
merken
קני
nello
Wil
vnega
sender
diff
454
Back
arrek
lehden
itario
dejte
ecimiento
aldiak
kompromi
vlak
label
czonych
learning
llisuuden
▁זונטאג
▁להוסיף
kumpulan
america
מיות
סרט
פֿן
piece
וניים
Rah
platser
sikre
bilirler
434
Tim
gaadh
skirt
437
-->
verndar
OTI
▁שהמ
detto
vanlig
153
letta
142
veida
נדע
xada
Projekt
libet
Update
אמן
ntotdeauna
atteindre
JANA
560
▁למען
.11.2016
schouw
ttujen
utvalget
465
biji
konomi
khwa
zamos
maydigan
smith
ZON
enseigne
reiden
seaduse
munka
REG
▁הדג
drukken
confort
environ
▁אלינו
phase
טשע
ikiwa
▁מאחורי
▁ווארט
▁רואים
▁בעיה
kohti
כתיב
ainm
588
SNS
platte
ystyczny
80.000
הוצאת
kursus
effectue
uluyor
5.8
▁ביקור
teenuse
ECA
zinto
recept
itteet
JES
▁זײַן
skrywing
Tour
gjin
viiko
krotnie
eeeee
tivno
ruza
hintay
ABU
ESP
prinder
raste
789
שיר
FAR
akademi
pesticid
030
gudes
config
▁יעל
offici
iiii
DAI
tiradi
ZAL
moment
▁קורה
▁מילים
hadap
164
beidz
impact
שמר
453
unkban
kirju
Pir
Kompeten
bho
iscrizione
maatti
rillo
otreb
Egy
your
XH
NUS
Tie
וזי
gusto
▁תנאים
gearbeitet
▁השופט
▁לשלם
ניב
▁הפנים
ועים
waxa
installer
muzik
spirit
logisch
izmir
immobile
kurangnya
huquqiy
tegning
פשוט
bestand
milyen
popol
▁איתו
RADI
OSO
עניין
DNI
rinha
leverancier
▁קבוע
תוספת
meistri
▁מעניין
athlon
▁סתם
עסוק
jenek
Marc
ESO
INK
richting
Uradni
xeta
sbehandling
vkou
List
▁הינה
blanc
hessen
ghal
tuksella
sommer
גיל
מיום
irsiniz
avtal
Pero
208
2.6
kalni
CRA
feminism
filo
speel
נקודת
▁להשיג
kiwemo
erija
קוו
Matt
pakkumis
ekspert
Martin
stavila
HEL
DDD
שיפור
▁ויו
tellaan
neuvo
fragt
רמי
vajanje
בורג
cuje
reklam
UKO
UNTA
449
magnet
561
equilibri
beharrezkoa
▁עוסק
דני
software
eerib
▁אלעס
▁ברמה
wens
▁לידי
fluent
MEI
uudella
thile
pentru
נגר
torna
terus
קומה
ונן
1900
Pak
klubi
391
▁השכר
ksista
luniau
pensi
דרכה
ZIE
mailadresse
אלבום
▁אמנם
[22]
yxati
Barcelona
gip
Enter
▁מחירים
אמי
bungkus
reyn
mekko
close
Nord
▁מבית
זות
546
skuld
שעה
kkonen
008
156
▁הגדולה
sistencia
2,3
SPEC
czona
▁איד
▁לבר
bilmente
jenga
▁תגיות
vergoeding
dash
▁בחודש
ffurf
MCA
רצח
argument
▁חולים
rizo
zungumzia
OPA
behov
אהבת
yacaq
yenler
▁ספי
ושבים
tahay
SOL
miesto
ביטול
instituut
opati
woning
Alle
Stop
▁דיני
forza
Card
kamatwa
▁השרון
iacich
biljett
▁לשימוש
Java
854
166
rekord
03.2017
HIL
drev
heat
וקר
spruch
ascens
ATM
ontzi
▁משחקי
פין
fyld
beton
kaudella
LICA
corri
Watch
koihin
WT
kraan
Frank
uteen
מחה
▁העובדה
hreyfing
פגיעה
▁העיקרי
▁לאחרונה
oldeb
koder
▁מקרה
▁מכשיר
עקב
global
נכון
teater
ערכים
Like
3.9
jusies
egiak
5.1
horizon
KRI
hayag
SJON
VAC
Over
correndo
SMS
perhe
nyelv
verkko
מאר
יונות
SPORT
▁הצבא
ccato
לום
Opera
▁הסכם
virksomhed
1800
disse
bevaring
grafik
DING
bevidst
1969
xerunt
179
אזרח
avfall
sairaala
6.6
חזה
organisasjon
תמיד
4.9
טקסט
tagna
vance
Bad
expo
468
DIY
IDEN
784
ohjelmisto
פסטיבל
lokasi
▁סיבה
▁לראש
▁הביטחון
vieta
exploitation
krav
especial
kommunikatsiya
ינר
462
מגוון
owned
layabilirsiniz
incl
tutkinto
IDAD
dorp
kowo
478
furi
▁דמ
3-7
ריקה
▁ללכת
INFO
INGER
▁זכות
▁הציבורי
▁הנושא
iqtisadi
trukket
warszaw
סול
prawdziw
shak
ukia
energie
kunan
NIT
ופו
sphere
;;;
ֵי
[21]
▁מאכן
▁ציון
spieler
▁העד
פרד
dimensional
materiaali
happy
thom
<3
gtay
1962
ָר
HID
מידע
▁תלוי
675
ISTO
9.00
גישות
zwart
הזדמנות
▁השונים
oggend
Naj
▁לעבור
luettelo
▁הרע
RIKA
BAND
raamatu
OOM
wymi
471
ניסיון
UNDI
betalning
Sor
Music
leacht
Roman
piger
489
interpret
infarkt
אלט
5.2
ngumpul
1.9
nnuksen
pikir
460
gatta
bhadh
ZH
AVO
707
luca
dinho
שואה
vuoro
HON
4.3
סטודנט
▁קילומטר
טיח
thuajse
▁נולד
▁כבוד
ravno
3-1
אנשים
דיג
privat
zketa
tetut
suvremen
ttaisi
KTU
oorlog
BOOK
מטופל
▁לעצט
טק
477
palvelujen
increment
eysaa
ברית
YEN
obligatoriu
sikring
174
גרים
tuotteiden
rassen
פלו
inscrire
▁ברחוב
tilladelse
,000,000
עיד
SQL
ערכה
excl
998
Oct
▁שאינ
גוש
qala
553
באנגלית
viol
interessa
משרד
▁מפר
ROV
gratis
impia
iseerde
Park
1111
1982
basert
riel
leiden
PPA
Angel
Temp
[23]
כרת
fjall
▁דפים
▁לציין
▁למקום
▁ארום
zzare
▁מועד
פֿט
634
bazi
poort
spielen
leiro
arbeider
evalua
leyecek
vjetori
▁ספרי
latina
ukkaa
▁מיטן
Indi
aikata
ACTIV
paikat
ADOS
arjev
General
006
755
Cel
uokite
ביק
szerek
מנים
Medic
ymui
laringiz
graff
KETA
matult
התפתחות
eithwyr
medal
lizar
557
▁הלאומי
provo
sztett
vizor
glut
luokan
IFF
486
kindlus
ליווי
װע
STAV
Pil
ratti
▁הולדת
AMBI
ארד
765
▁בקשה
iyordu
strahl
044
pandi
rasyon
architecture
VIA
▁ועו
Esto
lelwa
specific
ABO
villkor
ילן
mbria
ketina
שפת
gjafa
40,000
four
tycznego
ולט
622
altezza
176
pakken
Person
koppling
מיני
אוט
gazda
שנה
geschenk
▁והן
Occident
▁טאָן
orllewin
▁פאָר
173
kabili
ebatur
anlagen
hesi
liquant
REZ
kunstnik
frame
▁הבאה
75%
Nav
today
5.7
enbach
dimento
France
teksti
mniej
lygu
gangur
▁אמור
▁והם
njwa
olewa
559
אפן
בנית
selskaber
QT
▁לפר
▁דרכים
▁החומר
גרסה
XP
tamil
ECI
stunud
1/10
פטי
brojne
1961
tiboa
מבקר
ustega
▁געב
▁בבי
NGI
OMI
464
wskiego
reddy
▁בזכות
hormon
punktet
cristian
▁נובע
honneur
▁ראוי
kakve
tugas
Address
megtekint
606
442
▁עג
zielone
from
varky
▁לספר
czysz
intaj
265
fiets
▁הנתבע
5:30
TIVO
▁המערכת
▁רשימת
▁העליון
ידים
CEN
schmerz
ouez
poca
ספו
aalsus
linja
כיכר
CERT
beruf
WIE
פרסום
▁נייע
זמין
483
tyyli
TASR
Kara
wikkel
AMMA
767
488
talent
itzak
יגער
luck
גבעת
oleva
יטן
centro
▁שיכול
kaappi
הוא
teraka
Categori
gugu
דבק
ssica
Tab
לייגן
655
iaethau
kunnassa
gehaald
▁גודל
tsotra
sangiz
Maria
publ
eystay
394
oitetaan
quality
ficar
Bio
UMU
official
עניש
hartze
ndamiseks
animal
TOA
priz
1963
ermittlung
Arabi
telija
klimat
Email
esistenza
stationen
PTI
461
aihe
simies
תרבות
illian
Global
567
ויה
702
plasma
Nuk
genoten
baldintzak
GOV
yxatdan
▁עפעס
▁מורכב
▁החברתי
szervezet
dibile
LIVE
ENDO
NICI
חיים
sprung
▁תס
ELT
ravit
Key
urbo
brengen
tzearen
וֹת
UJE
lenir
youtu
pakket
לסי
Tip
▁אייער
מופע
476
kostnader
maatschappij
▁עצמם
forschung
variant
versammlung
▁משתמשים
olesterol
ריז
▁לדי
▁בשי
565
isivat
IGO
▁פּל
OOT
TIG
forsyning
vitra
kordse
שאלות
▁החליט
persoon
אקס
rollen
eddau
mbwa
494
kaubandus
senteret
dinha
▁ייתכן
▁זיכער
simamizi
▁החולים
▁הבנק
383
taseme
siehe
tungan
dunia
High
assistent
mudahan
modeller
466
illusion
lender
1,6
195
ologiczne
intervista
קינג
428
▁װי
טווח
Phone
351
kasva
549
VIP
זש
sayt
GRAD
novell
ffyrdd
hyggju
aamisen
Urgell
bevis
▁שמא
Run
1,4
modellen
ziaren
רגיש
ijekom
ראית
▁יומי
▁בימים
שוי
שימוש
רכים
plein
האלטן
שתה
556
pharma
AMIN
1958
▁ביים
joukkue
hlou
actualitat
Toutes
mbres
ozbiljn
3-3
ESTO
QI
hetsz
DUS
YAL
lijep
asafn
ביטחון
Jika
679
Selengkapnya
▁אָנליין
Name
שיווק
vitamiini
▁המוצר
554
kohan
SKRI
639
799
Krist
808
▁בבר
שיטה
schade
varp
current
netto
Kap
WG
kundu
▁בילד
ilemaan
hariri
sensor
1941
imams
anjur
▁שמואל
ANNA
cidit
sababisha
Yang
8.4
contact
avons
▁הבריאות
פעילויות
▁ווייס
gewenste
presedinte
juntamente
▁בערך
ברה
DRI
secret
1974
ineadh
izator
ICT
flanke
DAV
צדיק
▁מבלי
DAK
▁צפוי
fidh
qituvchi
tekening
OBI
pecah
oitukset
zgarishlar
כלכלה
שמת
▁הקבוצה
נופש
▁בכדי
Activ
לינג
integrazione
משפחה
brygg
KAM
regulering
iunilor
computer
rebro
fwyd
installazione
minibus
kierros
brille
kobling
amivel
השוואת
▁חזרה
puhkus
ARRI
dagdag
רוץ
▁אישה
EGI
claim
▁במס
vorming
Adressen
Word
tilaan
785
quvvat
frut
▁עשה
boksen
בוק
envoi
kondu
רנ
בוס
patnam
CLE
▁אריינ
JEM
fyfyrwyr
▁למנוע
▁מלחמת
▁ישנם
einheit
אמין
להק
06.2017
167
▁איפה
konvention
▁נושאים
▁הרוח
▁ואל
▁נהר
mbet
448
TIONS
▁שירותים
▁וחצי
UVA
eerders
positum
479
buruk
6.9
Orient
ברר
gewinn
נוסח
korban
hossz
sound
schrijven
instagram
199
Store
geladen
institution
▁שטו
חברת
▁האלו
וניות
prys
קען
kecil
ULUI
▁לבטל
TIF
itaanka
▁משק
סיה
economic
pigwa
bhava
577
avtale
TURE
gaande
organisatie
Kristu
▁שס
ILAN
▁נדרש
LIE
REP
▁בהן
effektiv
intervento
sniegt
אַז
weight
▁ממנה
Soft
ַל
498
inntekter
acaba
▁טעקסאַס
kanalen
yilgan
funksjon
zindua
1918
7.1
▁בארה
blank
occupazione
aptar
scere
RTI
ciclo
piko
bhra
helg
stijl
מגדל
alueella
ruldu
karten
kkoja
signal
leyebilirsiniz
635
ARRA
▁ומס
klasser
bilden
נדון
DAP
forbruk
vrede
▁נהדר
6.8
Saint
▁שקלים
Map
▁בשוק
Block
▁דריי
ריט
Auf
vrouw
5,9
SAP
wekwa
melidir
tinggal
xaad
kelompok
oplevelse
tenzij
loissa
Adam
כוב
giorno
adevar
technologie
allika
1971
vansa
▁הקשור
gemeinschaft
▁ארגון
▁טאָג
מחלקה
▁בהמשך
sihteeri
(^^)
vaara
9001
▁ההג
CAF
runu
solution
7,9
escenari
מוג
istettu
עול
▁נחשב
גדול
10,000
zugeben
ARBE
secuti
Mbps
תחנת
כנע
rinho
khaya
nettsteder
uojami
Commun
ellenes
INU
tadqiqot
zulu
▁הלקוח
מכירות
▁דיגיטלי
▁לחלוטין
juusto
kontrakt
cycling
▁מחוץ
tunne
raamatukogu
stigi
▁השאר
RAMA
▁עלינו
▁השיר
pood
stigning
correre
Profes
נדה
ECO
angebote
NX
▁אורח
AGU
▁שטר
stufe
diskut
tubuh
ahtaa
))))))
pakke
▁הבעיה
▁טלפון
RIG
▁נעשה
%2
▁עשרות
ajuda
795
sikkerhet
monitor
▁המאה
יאה
543
ESZ
HAD
hverfi
ָא
ttivat
וריה
649
GRAFI
▁מסע
▁התנ
rinko
tapahtuma
fitri
medic
ounded
fyldt
▁יורק
304
riedade
quart
itzacions
▁שאפשר
avtalen
occupation
hiana
אנק
yviai
yhdistys
KOT
KLI
1968
tillatelse
סיקה
לוס
OBRA
klein
tokia
3-5
009
lashgan
werfen
koosolek
hojen
stemning
avion
SOP
teltiin
תוך
belastning
ignor
kriterier
IJI
2,00
441
542
tafuta
מוזיאון
Vorsitzende
צלם
בטיחות
▁נכתב
ominaisuuksi
▁שאינו
▁מגיעים
meldung
▁בבני
▁ארה
▁אלפי
ETER
Afrique
govern
ציב
isyyden
stecken
עבוד
continuare
kasvu
זער
▁הגבוה
▁אהבתי
qiniso
arribada
KUL
gunstig
genoemde
kandidat
MINA
798
From
SKOLA
isipan
pisali
afgift
WF
rensning
1973
יקות
ketaren
KTOR
utmaning
▁מרכזי
dengan
כוונת
צוות
dejting
bourg
899
ADOR
▁בחינם
▁ביחד
bahoaka
punto
ergebnis
▁עבודות
7,6
1080
kwam
zweck
▁ברמת
problemer
Show
▁מופ
inneach
▁מזל
Demo
iziston
/03/2018
aufnahme
punkten
finder
KHA
מקובל
▁גרויסע
heilig
BBC
Why
772
evoluzione
ילדים
ָּ
Main
sortiment
rennen
posizio
xonasi
lumba
stuen
plika
ADU
CBN
436
depth
▁עשיר
kovski
OWE
איך
venind
ויקיפדיה
זיכרון
gujju
quvvatlash
doktor
KIP
▁הוסף
husisha
vuoden
Administr
▁נשאר
(6)
branche
▁ליום
atsiyasi
▁התר
מכים
ברג
nesite
Nkosi
פסיכו
brez
AJU
suunnittelu
צרכים
bavu
session
lapok
ARCH
fhoghlaim
omkostninger
▁אפריל
▁מאוחר
תזונה
▁בלויז
▁שניתן
.08.2017
Germain
iannau
schot
bayar
arbre
KAZ
▁הטובים
bleib
relevant
agiza
Rama
oittanut
▁התש
Total
verat
yhteiskunta
ZAN
arbeiter
duduk
469
▁טאג
fjorden
ovega
▁אונדזער
INAN
naslov
OWA
Kategori
eeriv
ratibu
geschrieben
פורסם
TRES
apertura
business
ecchia
▁בינלאומי
visit
▁עיניים
▁כנגד
ובים
▁אחרונים
▁להעביר
tarvikkeet
OBO
632
▁החופש
guld
▁האנשים
regnskap
teollisuus
TIVE
בוב
koloni
ksana
678
heben
1939
סמים
svenska
016
640
Caput
CID
sumber
305
lyasiya
Minu
▁אזרחי
weynaha
IMP
vejte
Dekho
exercici
מנת
trabaho
aeroport
תושבי
תוצאות
▁תוכל
MeToo
לאז
misiones
mthetho
verkiezing
bwynt
elezea
0.3
flam
▁אומרים
closure
677
patient
allergi
yritys
452
politic
lweni
608
459
betjening
alueet
sessie
▁אילו
offen
Raja
▁מרק
זאַ
bewusst
tvena
EDO
קטגוריה
▁זייַן
▁יוצרים
▁זאָל
qizlar
▁שווער
95%
▁משא
מכירה
472
בדיקת
oqibat
sleep
1964
497
NUN
lishiga
DEV
kaffe
ריח
China
jevanja
774
odpor
angkut
665
CSI
TUAL
778
kelta
LASH
INTI
betingelser
Samsung
decim
ישו
▁פּלאַץ
▁מחפש
▁הכלכלי
abast
מצרים
spice
shoq
מדד
mailadres
aineet
ovog
ligtas
סיפור
podziewa
estudiant
rechtlichen
055
schwer
1965
UDE
מחיר
partij
viisi
Chat
ינסט
riyo
685
▁המבקש
▁תפריט
▁זמני
konservativ
חיד
gudu
▁עמד
▁לחזור
▁ביחס
MOMO
veiro
autorisation
▁ברגע
וטו
lamaq
migrant
avimui
6,9
natura
EBC
boende
sayang
agairt
ambassade
ענען
halagang
אָנ
duizend
aseman
izimit
wohl
menjak
apprentissage
&#82
▁אבא
כּ
▁החשוב
vrez
ULLA
642
possibili
נוב
קדמת
1940
effect
vernd
aramdaman
aalaga
544
JEL
431
feier
Flor
TAY
nasib
abilmesi
▁הרפואי
▁התעופה
▁לנסות
▁האחרונים
▁הצעיר
gefordert
OJI
^_^
וואַר
konferanse
imagina
484
▁שמחה
wetenskap
▁מכתב
אמונה
engatik
פּו
palkinto
daiwa
▁פורנו
579
tunnus
taotlus
concert
platform
></
durchschnittlich
FOL
פולי
{{
ואים
RAZ
ECU
hawu
868
LIWA
786
dyktig
אוניברסיטה
gerechnet
obbligo
ekskluziv
▁חתונה
מקס
ktoriaus
analyysi
ענס
kroon
LTA
hunga
אנה
pengar
EHU
acquisition
kostnad
ljivih
ponin
3.4
brook
RICA
illut
augmentation
ביעות
PAK
▁הטר
izante
▁אזא
נתה
ampianatra
▁אוקטוב
[24]
▁נפלא
farge
elijkheid
medlemmer
474
TAKA
enguany
konsert
QM
anunci
1966
mondott
Speak
חופש
fikir
genoot
oloq
Programm
teema
LAST
שאל
eynaa
בינה
spelare
arbets
TSE
aprenentatge
Barselona
▁להזמין
▁ראשונה
laitoksen
▁אוהבת
▁קאמ
CCI
▁בחיים
keskkond
▁עתיד
אציע
samlingen
▁החדר
▁ומע
IUM
onyeza
▁הראשי
balance
belli
autant
sosiasi
6.1
tiennent
rect
jadili
kaaga
▁ובני
PTA
636
▁פארוואס
▁וזאת
▁ציצים
Instagram
White
▁בחברה
struttura
[25]
Quan
rzesz
▁מהווה
VIE
▁אישיים
התאמה
INFORM
oskopi
ovaniu
tunnel
1,00
stefnu
EDU
▁קפ
▁דוגמ
ukselle
produsent
avimu
THAN
vigil
ngkul
ththa
Johan
7,4
6-4
tajille
▁אסור
פרה
fizik
peleka
▁בלב
halter
▁הליכה
אלוהים
ledelse
stremamente
▁אחרונות
voormalige
gulat
wasilisha
restaurant
▁לטיפול
ציין
alimutan
csomag
▁לאכול
00.00
ELU
▁אומרת
pleie
funzi
culare
klima
REL
daithe
truck
נחת
reinigung
razzi
981
▁אחי
HUN
encarrega
תאריך
IRO
korpora
JEK
אַטע
besaran
Histori
leistungen
▁בחלק
▁איל
medewerker
תיאטרון
enseignant
▁געהאט
שותפים
probleem
רוע
verbrauch
▁לספק
▁מעשי
463
torget
File
▁סרטים
▁ייִדישע
Text
dehibe
Spiel
issue
obstacle
1967
טאר
Center
חשש
ELLO
intresse
droed
LKA
prezidenti
669
dajemy
zuki
Seite
▁מיטל
698
NEM
ampli
▁מטבח
▁בעניין
▁ישירות
▁וואלט
▁בצפון
pulver
▁יודעת
tunna
▁מוצר
▁זייט
fhi
קוט
buahan
karena
urrak
working
עשר
▁לויט
פיין
related
Bahn
Cast
492
pakai
זכיר
548
Fel
constructie
yihiin
HED
858
meubel
hodou
ktighet
analys
▁אוגוסט
TAZAMA
ctvo
4-5
remont
▁גרם
sikkerhed
lodd
science
vauhti
טיל
Yosh
seadus
kkaiden
סבל
viikko
illard
eysi
DRU
eczna
828
giisa
בתי
▁להשת
opplysning
tajwa
כשל
ַי
bijeenkomst
holdsfortegnelse
▁ועדת
oheshin
▁הנוכחי
ellyel
סטיק
muudatus
DIM
UNC
achail
nomina
editor
גינה
▁אגב
▁ציבור
beratung
cubi
aalinen
1942
doiro
prowadzony
9,000
eventuale
visninger
▁מסביר
▁בכיר
אף
shiqlar
iberdayakan
direktoratet
formular
daagse
baguhin
yzacji
xaafad
speed
▁יחסית
NAH
Control
LIP
▁כיף
fraction
רמת
mohon
tuseks
toerana
liyofanyika
oefening
▁השבת
▁נעים
panek
695
▁פריי
מדת
lanarak
Waxaan
pihak
leyebilir
koulutus
espectador
krok
▁היחיד
7,7
NHK
chukuliwa
Westfalen
bertanggungjawab
udgifter
agoak
veiledning
ologijos
sensitiv
1914
Petr
טית
iyyah
▁האור
yorsun
7.8
▁להתמודד
finger
ניתוח
▁בכי
1-8
ngkir
LONG
STAT
liefhebber
beziehung
מועמד
sourcing
▁בסופו
▁טכני
ongezeka
julikana
9.9
▁שכתב
מסעדה
forderung
seisu
989
alimentazione
graad
symbol
יגט
dolgo
כבר
Jack
776
stupuje
564
SAF
RDI
▁סוכר
MUL
949
569
▁מציג
558
neuvottelu
▁מבוסס
badilisha
▁פורום
lomba
sponsor
zzz
▁עברית
705
stwem
▁בשטח
▁לעבודה
שחר
Health
tourism
Tapi
ֶה
ומט
build
zhledem
▁סימ
אָוו
patrz
chaffung
hhhh
gabal
762
rozwoj
novic
נקל
Respublikasining
AMAT
ANIE
▁יעדע
נטל
Vlaanderen
▁במערכת
▁ואפילו
harjoittelu
▁לראשונה
עיתון
▁ישיבה
spausdin
xaneya
andaliwa
▁מכך
▁ועם
tausend
lighting
vjesno
▁משפחתי
NDEN
HOLD
adapter
Burmese
yjnej
uttava
כוון
econom
groot
/1999
MHz
menetel
▁היינו
(0)
▁התחיל
▁כוחות
Descubr
egykori
gatott
▁קווי
▁נוצר
lifting
TTT
▁להגיד
שתתף
agriculture
TOL
▁דב
בוצע
572
kaip
initiative
9.99
▁לְ
ידות
respect
▁מפתח
ָּ
Prov
muriy
574
1300
NICE
stiller
661
סופי
ָל
764
arentzat
instrukci
leigh
memesi
alalla
EQ
טשי
▁ביד
6.2
Amministrazione
lumotlarni
▁נתונים
trankvil
lhado
ABAD
guneko
▁הפעם
leuchte
קדוש
ENZA
motif
DIRI
virtu
6.7
iDNES
gryp
szolg
Leave
endingar
Version
awdd
flokkur
סתר
2,5%
frid
risiko
Milli
impose
UNGAN
686
Qual
kladatel
geist
vetenskaplig
ljaka
646
hrab
schaff
eiddio
hatod
orario
קק
VAD
766
▁מקצועית
9,9
tamatta
Grav
▁בלאט
ologjike
FZ
Social
Atlant
▁מעג
Express
NOR
849
▁אונזער
וזר
757
תחומים
blokk
scrivi
vuotis
mestari
▁ההר
571
telecom
morph
ksemme
mision
▁המקצועי
▁הקש
%3
▁מנסה
tisipasi
▁חברתי
propria
ORTE
Arxiu
INGEN
▁אורי
נקודה
טיבי
426
ifikaci
jalta
vergleich
Jakaya
regla
biodiversi
publish
9-1
tribution
▁לשמוע
versorgung
▁בנוגע
erfahrung
fabriek
velvollis
TORE
▁במשרד
▁שבועות
1/4
1-4
dankzij
undervisning
שירה
libri
gelowig
tuvu
סתכל
funktionen
komfort
spirant
ologue
נצל
CEST
miera
kiisu
GIR
ssamme
kuvio
issons
איש
belakang
quq
7.2
accompagne
CIJE
רמות
autonomie
phra
▁לבקש
toernooi
הוצאה
▁כושר
galerie
▁נחמד
טופ
▁המלך
DERE
▁אפשרי
adviseur
alkohol
TIES
אמנים
plakaten
507
annonser
litteratur
אגו
viamo
1938
huaigh
1,8
Public
▁מלח
jooni
537
wirkung
kerra
1-0
verhalten
naamini
GOL
adoption
branchen
▁שטארק
ייען
▁העברית
sajter
▁לאנשים
CSS
hydro
tagning
eeee
MINE
afdeling
zellen
TINA
general
perspektiv
importance
hihihi
UNK
orientation
ulescu
844
7.6
687
adhya
domstolen
▁דוא
יהדות
brok
geordnet
GNO
אטרקציות
מודיעין
apakah
valtuusto
▁זאגן
wezekana
▁ההורים
aankii
▁לחשוב
קירות
avoue
vakar
clave
מרכיב
bahasa
▁מופיע
diktatur
MENTO
668
diyiniz
fjell
446
origen
zelfde
valente
export
besc
אמצע
felder
6-9
שמירה
orienter
fiziert
dhiya
plod
taendelea
4.4
837
extrem
דמוקרטי
▁הבינלאומי
Pohjanmaa
excursion
842
addict
dependent
kamilika
Mind
676
specialist
Digital
00000
רמן
▁באד
ahatonga
9.7
tiivsus
▁מוביל
EREN
majandus
7-8
voering
ידוע
ZAT
WL
givende
689
▁מביא
▁הביטוח
▁לגרום
▁להיכנס
architetto
▁וויסן
tjetrin
▁נוער
▁מטעם
▁מכיוון
889
bohat
=20
ecki
▁טובות
▁ולהת
cultor
suelen
Business
kwaliteit
709
bestuur
ECH
ledge
עזור
בליק
website
herberg
leiten
ייצג
adult
valstybin
JAL
ODY
Click
laddning
9.000
5-6
דאג
AIDS
ALLE
467
▁בפועל
geschaltet
עיסוק
rijden
גידול
llisyys
spicio
gefallen
gxo
rossi
liggande
אפר
idrett
colla
תקשורת
פוק
djelo
sszal
rahasto
Kel
877
656
ENDER
TEEN
זוק
csatorn
נדב
ifisering
Heb
prezident
hetett
verwaltung
HARI
0.01
▁באנוצערס
embunyikan
▁מוזמנים
structuur
▁איצט
▁שיניים
▁קופ
gelaat
censor
884
mattikorkeakoulu
ANGKA
כית
PEK
MIL
kunstner
edizione
greind
beskrivelse
llinger
TARE
cloud
occuper
749
ambuli
ABE
natakiwa
kohtu
fiinta
kausap
isiksi
▁לשחק
Moenie
NAME
קטגוריות
AARIFA
▁ביניהם
▁הפוסט
▁בשעת
▁זצ
פסוק
▁ואחרי
tilanteessa
▁געלט
istruzione
פחות
raichean
אנא
entend
ZV
plash
UKI
matkalla
rumpi
Michael
incendi
trust
asutuste
▁בייַ
hankkeen
plication
אסי
פיצו
NOST
ordinador
tausch
gosto
שדות
nakuwa
▁גאנצע
esecuzione
▁לפעול
▁ראיתי
▁ולאחר
hallinnon
ABLE
פנס
woche
runding
תקשר
cambio
▁שגר
hofer
kryty
yddion
500,000
שוק
melisiniz
.01.2017
נגען
assenza
487
Karjala
lampen
שכח
▁ביקש
745
owuje
578
igualtat
sionele
ETF
champ
ventus
▁פתרון
1930
venjuleg
▁פוסטים
866
uzasadni
SIDE
NCH
אַנד
▁אראפ
פרת
▁בעלת
Talk
PRODUCT
▁מתנה
tendemos
▁עמי
פלה
OCA
גרה
UBE
פונים
atmosfera
985
imagine
ORUM
bindung
teljica
gqi
ARKA
quidem
אַנס
ועדה
997
ospedale
apteek
vathu
UCI
frekvens
▁המועד
735
וסק
European
שלטון
settelse
▁ייש
ttelse
▁מגיב
ylli
▁הנח
jtja
lashuv
▁כתבות
ULAN
KARI
propor
________________
blatt
▁חני
kampaania
phambili
אבל
stawienie
contract
Orang
TPP
ingizga
seirbheis
▁עצמאי
akomillashtirish
קובץ
▁אתמול
▁מאחר
▁שיחה
▁חייבים
keeper
ZZA
▁מכיל
lanabilir
742
lerindeki
interior
Stock
AYO
rakennus
בגד
538
styrk
MINEN
aktual
pussi
kropp
▁להסת
kaasu
פז
tuhumiwa
תוכניות
מתאימה
הפכו
▁ערשטער
yhdistyksen
▁אורחים
frequenz
borough
HRA
AMBA
cancer
tafiti
פרץ
________
Hospitalet
PLAN
dhaan
NAC
lucina
fluss
דרכו
unterricht
ריש
oimaan
Happy
hatott
▁הסמ
iresaka
Direct
fyrir
Excel
683
oblikovan
sowat
House
mozadovoljevanje
▁געמאכט
סניף
▁טאקע
wethu
▁הטובה
▁פוסט
▁וסי
▁האסט
▁הענ
touch
Intel
xwar
נישואי
נקט
singh
tworze
occupe
996
AAD
deutsche
studier
שאינם
York
וודאי
אלימות
הסכמ
industrien
laulu
גאנג
644
uddannelsen
ttaisiin
LUK
▁אופן
accompagnement
gesellschaftlich
/06/2018
536
EEL
natarajiwa
hvata
perfect
▁מחר
▁פנימי
7-1
▁הורים
accepte
966
481
chandra
חינוך
kontrollen
▁סבא
werkers
hisar
2,8
vakantie
ROK
kysten
מציא
987
איר
znaczeni
NOVA
ssss
synlig
עודד
▁באמצע
▁חופשי
metall
▁לדברי
Yiddish
מבוגרים
Octubre
tkazilgan
hlabathi
afdelingen
mluvit
YLE
▁התקשורת
kampagne
nutzung
NEJ
aparcament
805
ohtu
kulma
▁פּאַר
When
avventura
דגש
tanana
▁העם
ENIA
INTER
zulegen
KEY
טרע
TORIA
plader
honor
eiriau
regeling
naidh
609
▁שינה
chagua
ליגת
kontra
MENA
566
תמודד
obbligatori
[27]
▁נפרד
displayst
vahendite
▁החיפוש
▁מענה
496
771
▁טעות
Aug
סקו
Arch
ליג
בטא
שפר
Tool
short
drup
metric
ידיעות
igilan
▁בפרט
Official
palveluita
שמי
אתגר
liikenne
קונים
sdatter
trainer
ירידה
ishlangan
topia
NW
ISHI
nolako
binder
סיכום
▁מסעדות
anzishwa
dhaqaaq
voorzitter
veksling
792
ענדיג
clair
▁לרוב
cript
▁מסוים
hhhhh
▁אבן
Lyk
Holstein
▁נקרא
662
וואל
018
plade
8,7
achuu
bedryf
ABC
▁החלק
אַלט
spejle
YCH
BALL
ETH
Yahoo
pljenje
684
esposizione
Produkt
▁אלס
652
fejl
lector
▁בחשבון
chaguliwa
schrijver
GenD
ththu
קפיד
maliza
LIMA
###
osakonna
byggd
ערבית
angesien
abilmektedir
tuvan
פירוש
8,00
drejt
mutter
Politik
ARIS
lwytho
hawk
intellekt
955
שאם
Roz
Def
Movie
indeks
Light
5.0
realist
buck
▁ארבעט
▁אייל
insamlegast
▁אוטומטי
▁הלימודים
edaspidi
▁מאמר
▁המשתמש
▁שנתיים
▁ציבורית
▁בתחילת
smrt
facil
▁התרבות
▁מוט
▁לבנות
korps
object
834
QE
שיטות
BEK
vedere
885
LIZA
cycli
commissie
micro
KKI
panjakana
Dame
ביעה
verkefni
Peng
ewicz
crates
alarm
layabilir
izeze
esdeveniment
baovao
kasema
ilmelidir
▁ואמר
▁ארכיון
[26]
Wenn
DIK
▁לחיות
journal
▁ישנה
OPS
yjny
▁חוקי
lsangiz
polku
1949
מטע
2.000
TAG
nnoissa
▁מתן
▁הנפש
מאי
IMENTO
mbele
BIO
XIII
lectiva
puud
Hab
ענדיק
kseksi
836
ANNO
בהיר
EAD
instruction
▁מתוק
architettura
▁שוקולד
apparatuur
▁טוען
▁נשמע
▁מאור
NTT
1,7
▁אנאלי
efficienza
EBE
598
gesit
547
754
lungkot
6,0
הצעות
1948
magasinet
rilib
apartat
gueiro
YIL
708
0001
kryp
ohjaaja
LGBT
▁ישיר
539
Thank
kierto
error
1400
▁ממה
▁להתחיל
forgalom
בך
586
8.6
brze
phume
צרה
aineid
725
espoir
מיס
נשק
2,6
859
tikken
gemeenskap
tieteen
901
MPI
struksjon
entendre
gesundheit
▁ליהנות
▁ישובים
▁להוציא
▁המועצה
divers
konsum
7.9
propos
zugehen
659
agenda
sjoch
▁רכבת
רנט
ENSI
portaal
upplevelse
רענ
▁רוז
1956
▁הצד
nsiklopedi
תחושה
▁משמש
▁ברוך
[30]
brett
הזמנת
bangsa
Jangan
Kanak
▁מקבלים
864
מחלקת
▁קרית
LEY
▁חיובי
charakterystyczn
attacco
JAVA
nyugat
aceae
appropria
734
יסים
Waxa
produksjon
נבחרת
Ref
חברה
mattoman
ihiisa
ommage
haridus
tvami
gujarat
תקבלו
638
▁הצורך
געשטעלט
wijziging
▁בניגוד
▁היהודים
EUS
urlaub
▁בסך
▁אידן
▁מחפשים
מחנה
▁הפרק
yyteen
verkauf
עידן
▁נכ
stefna
מנית
oobay
allowing
tyyny
kviz
783
מעגל
pelajar
oplysninger
568
margin
geschlagen
AFP
עמדה
heimili
America
gewalt
KUNTA
התחלת
▁זקוק
▁אירופה
leyfi
IDHAA
▁היחידה
ifizierung
lenebilir
midagi
▁ובין
ISMO
▁שישי
teenindus
vuotiai
LABORA
radnih
hidra
▁דורכ
aktiver
klapp
journalist
מאגר
geschoss
EDEN
▁בעד
flag
1234
1937
Raz
automaat
vurdering
1947
עמיד
838
▁מדהים
▁ביטוי
zofreni
▁שטאט
▁ארוך
soodustus
fobia
tribute
qituvchilar
hapur
envisage
CCP
HING
mektir
optimal
seksual
jiyay
▁סיטי
FET
▁רקע
10000
597
gemaak
tyneet
ANNE
641
תנאי
obtenir
VIK
עכשיו
GRI
vidusskola
vloer
▁בקלות
▁תקופה
emballage
ainkat
9,6
נשא
722
simple
ASTI
▁לעבר
kirjoja
second
aktivitet
Step
thira
▁בוגר
1954
▁בצל
uvimos
PPI
German
▁נבחר
מאות
medizin
OOO
martin
טענות
DAC
teamet
KLE
מפקד
Creative
Standard
4.000
▁יושב
consegui
!!!!!!!!!!!!
vaihtoehdo
▁באָ
645
kaupungissa
אפליקציה
gcwele
▁המשטרה
▁להכיר
ongozwa
gebunden
מיטב
02.2017
styrke
Lorem
רעיונות
נושא
april
האט
658
LITE
kokoelma
bagian
ambula
puut
caire
pozici
Event
urreko
mengde
UNAN
ֹא
iteetti
aventure
WiFi
usiems
kantoor
▁קאָנ
תחילת
veranstaltung
fuso
▁עבורכם
▁לרכוש
שנים
phele
vaatimukse
SLOVEN
cakap
innovation
▁אנטי
alumne
▁בבתי
מיע
682
633
589
▁שאנו
doonka
ענדער
▁קינד
housut
sgoil
▁סוד
appello
מוז
Div
YAH
Hospital
pathy
skryf
zzini
explique
umfang
592
Reuters
opinion
מעוניינים
xshash
▁מצווה
puolelta
▁כתוצאה
vahendid
onore
mortal
▁הצוות
▁החברות
kraut
▁בצבע
fanye
▁ולש
ILIK
cyclo
אסט
INTE
886
Bill
לעכע
Agenzia
oloana
fps
plicht
Bag
jengwa
tanggal
▁טעג
thetha
988
pavil
albergo
pomp
▁סאַ
onderzoek
wereld
▁אסאך
געגעבן
רשומה
▁מאַכן
Louis
▁שבהם
TUKO
▁מרכזית
▁רחוק
geleitet
Nagy
rinner
FICI
9,90
yjnych
רשויות
פצע
skytte
Server
universita
▁המשיב
muuseum
prenis
תעורר
TRY
▁בשני
addii
החלטות
beker
604
OHJE
GGI
99%
kuulu
▁ינואר
תרופות
excellence
ensenyament
ufgrund
▁לאירועים
saudara
קבוצת
▁אייך
▁מעולם
friendly
▁אוהבים
syllt
ganitong
konzept
tuoli
Invest
affront
HOD
▁נשיא
▁הרגל
deildar
tazama
▁דיסק
▁הכול
▁מזג
טיוו
NOG
▁זוכר
oreille
nnolla
attente
▁האזור
alumnat
קהילת
▁רשאי
tumiwa
977
▁נמצאת
697
▁ההון
▁שירים
exprimer
כף
מדובר
צבים
hartzaile
establiment
hulp
צופים
AFI
meistara
▁ירד
IJOS
▁גרמני
varande
tendendo
konstruksi
rsatkich
lakshmi
▁האמיתי
▁הבוקר
[29]
1959
▁במרחק
With
teknisk
arbejder
▁אחראי
utstilling
Human
▁עוזר
הגשת
שופט
CESS
▁אונז
HZ
▁אתרי
נטע
sleduj
▁הקול
djon
rigting
ininkams
mittere
Job
Menghilangkan
▁האקדמי
▁זײַנע
tekniikan
▁הראשונים
▁התביעה
verlichting
▁לשעבר
[28]
▁אימייל
exemple
ilecektir
ROC
▁בלא
oanele
ecyzyjn
8.9
געל
קורס
כח
Afrikaners
Stand
▁האמריקאי
IMG
Quest
yakorlatilag
▁חדרי
מעס
cliff
gevoel
RIJ
poolse
673
unggal
kurugenzi
hebung
▁בבוקר
spauskite
▁לשלוח
▁באקומען
meddelande
tuotanto
▁טרם
▁הסביבה
karakter
ministeren
evolmente
runtha
SOB
▁בואו
vejledning
IFU
נגב
tatitra
848
binda
מרבית
6-7
ממת
vergelijk
0.000.000
stattung
שיחות
----------
lingvaj
fumana
aynay
▁בימי
gospodar
חובה
yzacja
ervaring
hothutaw
▁אפשרויות
647
▁מסך
Telugu
MENTE
▁מיוחדת
mefanya
▁וחי
▁נקי
vloed
plec
מעוצב
iiiiii
producent
Mobil
badeed
744
LIST
phal
Robert
מצוות
pildi
▁האמור
טף
637
nguqulelo
▁ותשובות
▁אדום
▁עדכונים
רכישה
▁המוצרים
umuzun
Pierre
ANJU
▁נמצאים
differenz
viedla
לבוש
offrir
696
faktur
דיגע
▁מותר
SOM
▁מסוגל
collect
פרנס
FAX
653
ALDI
CJA
oksesta
736
▁בערב
▁המאמר
▁נמוך
▁זאך
▁עליכם
Elektron
supuesta
blijven
advokat
language
daharan
kifanya
Kultur
Mill
minimal
varustus
Type
Bloggaa
politiikan
קדים
escort
aurait
7.7
וויל
POP
651
עונש
laitteet
plaadi
subst
semua
OWY
ministeerium
צביע
GAY
▁באַקומען
▁מעורב
▁קעגן
fehler
ngozi
תעשיית
givande
menetluse
iposting
000000
▁פרטית
myndighed
ionann
IRAN
fermi
▁הכללי
RUG
863
הצג
lashib
מעבר
sampai
planung
ngayong
פנק
Motor
though
quisito
xonalar
▁כזו
▁העובדים
▁תכנון
תעשייה
shuhudia
pampiasa
▁חשמלי
rtasidagi
betale
▁סיפורים
subiri
povedal
Michel
abonnement
aggregat
בדיקות
AMOS
898
▁לעיל
FAQ
▁שחי
▁מדע
▁רוחני
2,50
aeque
implement
Philosoph
spoed
klip
efficacia
פקד
resistent
794
מפורט
▁ווייסט
atelier
607
mahdollisuudet
▁במהירות
▁סגור
▁הקדוש
ansvarlig
sekvens
gewoon
kirkja
grill
gardiner
דוח
elenco
Wall
60,000
strecke
▁מִ
צוק
נטן
גילוי
scienco
gomb
3.000
▁הרשת
OMBO
Guard
הייט
גלגל
spezifische
nghylch
▁לארץ
▁לאדם
boob
▁הכוח
739
techniek
895
mekteyiz
גלות
672
hastighed
Ceea
oublie
spray
tulemus
Chef
Bretagne
▁רעכט
▁מזכיר
▁במשחק
▁הגיעו
3-8
▁טב
vuori
ONTO
sozial
khti
Alamat
1,9
▁התחבר
bidrag
laatikko
שחקני
teilig
573
VALI
UDEN
ICP
ubuntu
kuthu
756
zweifel
XXVII
▁פארומס
karibisha
ljallangan
▁װאָס
▁נכונה
▁דרייען
verzorging
▁נוצן
malizika
fanyia
▁דאך
robil
▁הטקסט
freiheit
oubliez
▁הדעת
ayurved
OKI
HUB
writing
keskustelu
1946
sciamo
eshwar
budget
kupljen
▁יכולות
immigration
979
קומו
monat
Math
סביבת
educazione
utilitza
ברענגען
▁הנסיעה
zukommen
▁מומחה
▁נשלח
גשים
▁המשרד
▁גרא
gemeinde
espressione
UNU
bannaan
ETTE
פרסמו
immillaan
izaciji
▁אנגע
▁שקט
praxis
סדנאות
עיתונאי
polttoaine
infanzia
▁לימודים
SUV
סינג
bimbing
valmentaja
▁העונה
kiendelea
anbieter
ָב
1936
alcool
estrutura
tundlik
LOGO
▁יעיל
gambil
▁המוביל
zaintza
NGGA
בסס
viaza
איסור
tkaziladi
▁האס
kongres
▁החזר
965
ruhusu
niecisk
suunnitelmi
▁הפעולה
▁מרדכי
878
geschickt
▁חומרים
▁ווערטער
aghahanap
דגם
predaj
▁טיולים
▁משקל
ERRI
imbaji
gradering
getreten
IMIN
kaupasta
Every
טאל
basseng
8.8
OMBA
habiki
שקי
NAY
6-0
ELEN
fordult
ICU
ngkong
6.3
Wahai
▁ערשטע
▁בהצלחה
▁לעיתים
gotovljen
▁לרבות
▁לנשים
▁נקבע
poliittise
ncwadi
toiminnasta
spatuko
▁נתן
sprosess
▁אדמו
Myanmar
tilfinning
Travel
PHA
osassa
^-^
Rusiya
973
funktsioon
5.9
זינג
▁הדור
stories
soort
existent
▁לצפות
▁קריאה
▁שנמצא
zauber
▁כרגע
/12/2017
▁לוקחת
9.6
▁לאפשר
RTU
abuwar
sllav
humour
ABILI
keskkonna
ַע
▁מילה
zumleri
hevitra
wirtschaftlichen
Blogg
UJA
ֶר
Estudis
appui
חידוש
kuljetus
melltu
BALI
institusjon
grafic
Meng
עצים
אפליקציות
▁מציצה
▁בבקשה
▁ניווט
חמישה
1953
869
▁המלחמה
rekomend
▁באור
static
think
Hall
969
Philip
qartulad
גייס
DEF
vocation
kaupassa
klokke
slalom
10.2014
בראשית
סוס
▁למצב
tendono
587
dvendig
▁לטובת
ldirish
▁תקופת
Pfalz
ungkol
ntellektual
llerup
greep
מתמחה
avslutning
ttomuus
ORNA
accoglienza
▁סיפר
הצעה
648
adaptation
▁האלט
▁קצ
▁מודע
▁השוק
491
fighter
▁לשני
agenzia
rodzeni
aspect
TEAM
tieteellis
Check
▁הפעילות
▁הקהל
▁במלון
▁קרו
▁מאכט
▁בשבת
▁רפואית
▁גדולות
000$
664
kriteeri
oarelor
laguntzak
ILM
Mercedes
Kontakt
sentral
▁מסחרי
ventil
טום
archiv
sionist
▁געזונט
korrespond
yswllt
פרוייקט
▁הארדקור
▁המיוחד
tuotannon
▁כולו
bantwana
▁אמאל
▁יבוא
אתר
skatoties
▁לעובד
ָם
▁חם
signif
944
radigan
leidimo
▁במאי
beskyttelse
utdanning
OTTO
ביס
המשך
ADAR
כולל
tunggu
▁דורש
▁החול
vamma
אלע
tuvchi
▁ונע
56%
▁בצד
▁לתוך
IDADES
▁הצבע
voudig
מערכות
impiego
לאָג
Local
distri
80,000
yhteyden
2-0
▁פסח
inflammation
▁להציג
▁בעבודה
▁משמעותית
▁העמוד
aggiunta
לוב
▁ישירה
▁נותר
▁הרווח
oireacht
schalten
LISTA
VIEW
ITATE
Israel
posuit
darbojas
Rezult
1,5%
genggam
PORA
importo
rijf
גנת
ALMA
דרום
nantaja
594
teknikk
986
infect
Food
kroj
teoreti
andraikitra
RAPPORT
פּאָ
▁הביקור
▁פרחים
▁נפגע
kubaliana
▁התמונה
spannen
sallad
gelegenheit
nuwun
arhiiv
Find
▁וועב
▁להקל
while
expression
4,00
bonisa
1952
alqaro
HANA
dbyder
zaslan
KOKO
▁הנתונים
Ufficio
▁הנשיא
▁תיירות
draharaha
▁בוחר
דמויות
דיס
▁לשפר
ריכוז
llisesta
fundisha
▁גיט
הנהלת
▁מיך
elektronik
versioon
eyjar
katikati
0/5)
Oxford
PPT
Untuk
Group
Svobod
schlaf
סמכות
assaggio
ISCO
TSI
ZIONI
קלט
horari
Royce
Information
positio
MULA
nyelenggara
▁הנאשם
הופעות
.06.2010
שאַנז
ndertussen
▁שקיבל
▁הלקוחות
XXXX
1957
טאָר
dynamisk
▁קובע
makelaar
kohdat
85%
George
kultuuri
קיום
historisk
▁אמצעי
belasting
stokk
abitazione
FONT
vjersk
▁הפרטי
mittit
UAH
▁סופ
▁וכמובן
▁בתקופה
polkovnik
percaya
▁געסט
fordeling
▁הלילה
ESTER
adenn
9,8
BUNGE
representa
wedstrijd
kecuali
intervention
Pack
sosial
pecia
yvaus
byxor
ִּ
ALTA
שלוש
738
בטל
punjabi
8,1
getrek
ARRE
thibitisha
▁לכאורה
▁עטלעכע
מידות
מתאימים
כפוף
zgartirish
▁להכין
▁מיינט
DRAG
STVO
חוד
flokksins
berdintasun
967
freunde
mahdollisuuksi
▁המקורי
879
vilkt
anwalt
kriev
vrucht
ANCI
outlook
operator
rukkum
fanyiwa
תשומת
▁וועלטליכע
▁דיווח
▁לסייע
▁לשאול
▁מיועד
ytundeb
NEY
▁לרכב
8.1
▁הרשות
gestalt
abilitatea
1,0
עבודה
riktig
מדינת
נִ
UKE
lenecek
AGER
kumbuka
שימת
עַ
▁וועבזייַטל
▁אַרבעט
▁זעלבע
▁עיריית
▁דניאל
interdisciplinar
▁בתאריך
przyspiesz
katsaus
OFYA
▁כלום
ציור
▁החרדי
CZY
priori
שוא
=22
מקד
iyiinta
mluvil
Euroopa
First
mayacaq
allenamento
abiliriz
employeur
AKAR
וויס
organismo
responsabilitate
USIA
ehitus
▁הכסף
▁רוסלאַנד
▁החלטה
ymdeith
▁בדרום
stoupit
מסמך
ניש
WHO
חרדים
aystay
yfoeth
dryf
▁סיני
מגרש
▁היהודית
קופת
vettvang
רבע
ARNA
toiminto
טאן
865
csapat
Esperanto
Pinterest
Adresa
שלושה
Mehr
▁וזו
Alpes
▁מלמד
registri
▁פֿאָר
Daugav
ומנים
12.2014
שבח
ENSE
SOFT
koncert
מובן
מסגרת
kjole
sindavefur
▁העתיד
▁נותן
formidling
suzluk
▁בתנאי
אַנאַ
גבולות
konekt
יסטית
1919
FSC
כאשר
bedrijven
לחץ
נסקי
twory
ITAN
protec
TORY
rinbosari
naidheachd
tilanteissa
uddannet
▁העניין
mailaka
Gymnasium
conecta
Europ
NATO
▁לפרו
▁וכד
vahelise
1705
IDENT
nnoista
gelaten
ohutus
חיפוש
▁הפרויקט
▁פֿונעם
▁התגובה
▁מועדון
esigenza
▁בשירות
▁געבן
▁לדף
▁החודש
taloudel
▁הדף
▁פארשטיי
acmhainn
תוק
פארק
tunnistus
תשע
szerkezet
inspiration
iweyo
▁חוג
8,0
selvitys
▁שזו
NAGAR
▁הדפסה
▁הבנתי
▁שמדובר
afegeix
[31]
vergunning
▁צעירים
▁חייו
PHONE
tadbir
fadhili
batteri
Anhalt
ljivanje
rtaraf
ithfidh
[1][2]
Style
arkisto
israel
diugh
pidamise
episkop
artikler
גשר
landschaft
▁הקהילה
▁כולנו
▁הכדור
▁קטנות
▁ברוב
▁המוח
seguono
▁הנחה
07.2016
▁ניסו
1933
wraig
substitu
vexti
ooyinkii
Lock
vastuu
resurs
idoji
▁הרכבת
PHOTOS
▁פינת
UTTA
uutena
muusika
מץ
laboratori
husay
aamiseen
▁גליל
tradition
shughulikia
immeuble
▁לכאן
▁ברוכים
▁הפרטים
▁איתנו
▁התמונות
▁סימן
8.7
gesichts
▁מושג
meamua
soovitus
▁הודיע
1943
aukums
ודיע
נסיון
pildyt
657
▁ביטע
kommunikation
PERS
apprendre
detekt
MEX
נפש
אנשי
6,00
מוסר
BMW
punct
antwortung
emedim
▁לשתף
▁מוזיקה
bebyggelse
▁ניידים
טראכט
▁הקורס
namespace
אגר
▁עובדי
הדפס
▁משנת
quvchi
tablett
korraldaja
ווען
habitation
dasarkan
miestni
andikwa
כינו
BLUE
samfund
opleiding
abiltza
itheann
sahabat
architektur
blind
fafanua
אלכוהול
▁מומלצים
malayalm
▁קיימים
הרצאות
▁בקרוב
shirikiano
helyzet
organiser
867
▁איתי
nopeus
כין
RABA
frog
UNDE
formulier
מיין
Prav
▁המחקר
lenerek
ynnydd
PUBL
Source
urheilu
Roll
hajtott
kereszt
dyscyplin
▁מוצלח
.03.2016
ominaisuudet
▁בשנות
▁אליהם
▁חברתית
▁חום
vanjskih
africain
yfraith
בצק
automne
מהירות
elokuva
potrebe
▁היסטורי
Execut
כוס
תוקף
פריד
lantirish
ENJE
KULU
Will
virksomhet
accident
menneske
Berlin
CHER
▁צייַט
shambulizi
boerderij
▁הנוער
▁בעברית
yinlari
edigaeth
turniiri
PING
Ordine
טורי
besparing
ZKO
nnukset
Vision
▁היות
consider
▁פלילי
rsatadi
cookie
ALLAH
Software
family
Daily
IYE
foretak
pakinabang
▁ויותר
▁להשאיר
▁התיכון
KANAK
applikation
▁מוכן
▁כתיבת
kottai
לאַנד
סיל
employed
▁בכפר
opetuksen
kreds
▁הגיב
דרגה
לאָז
teadvus
▁שאול
kulingana
frukt
YAMA
aimseartha
▁לערנען
השתתפות
hospitaal
▁העולמי
יציאה
▁מושלם
homenatge
tkazildi
loidhne
▁כלשהו
▁שמעון
▁אופנה
▁מסכים
סוכנות
aanbieder
ייצוג
▁דעצ
August
▁בקשר
תאגיד
תחושת
▁קאל
מאַן
יישאַן
holdelse
abawasan
UDO
austausch
▁האוצר
OMBE
ngependa
RZE
ESCOLA
niesienia
Single
huhuhu
erakond
fahrzeug
yabhaskar
▁מוסדות
▁ללקוחות
gemeenschap
▁למכירה
aanaa
▁הנתבעת
VJET
ׁ
חשיבה
02/2018
aisteach
▁לחברה
kapasitet
INTO
▁מודעות
inserimento
▁לגיל
indagine
uudelle
▁נוסע
visoje
▁לחברת
מפתיע
tandis
regering
Casino
RISH
account
מכת
msgstr
▁הקודם
lautakunta
▁המושלם
vaatteita
▁גוריון
verkiesing
▁נייַ
▁בקטגוריה
עטן
Azienda
smetoder
zusehen
tarkastus
mittari
juhtimise
ולמות
▁קאַנ
ILDI
Learning
eminyaka
שחרר
נדיק
estranger
▁להוריד
batafsil
▁עובדת
Sutinku
wschodni
stuhl
▁הפרטיות
עניינו
apprendimento
teollisuuden
▁לשירות
1955
limitat
מניעת
amelyeket
rgazma
insegnamento
▁מדעי
yokong
אייר
EGU
נינג
preven
Lajm
tarajiwa
minstens
appartamento
toksik
lqin
pisanie
וועט
oqrafiya
ovovavy
verwarming
הולכת
▁הפנימי
▁רכישת
kappale
▁זייערע
▁לעניין
vordering
UKSEN
zuhalten
eeltemal
enfance
plastik
▁נאמר
annaich
נגל
telkens
רבים
Qaeda
אוהב
סחר
▁סובל
default
Association
prosentti
amunikat
▁מיליארד
▁פרייטאג
▁זאכן
verzekeraar
▁אַזאַ
קז
▁מיכל
jpeg
dependence
LIGHT
Histoire
Prijatelj
transform
CHEN
renkaat
ריג
alueiden
penetr
Comments
simamia
sammlung
ystadleuaeth
▁אשדוד
▁סטריט
הופעה
▁תביעה
מצחיק
▁אדר
attuazione
▁זעט
mettono
פירן
kbps
capital
Sveika
▁הצטרפו
מאמן
kapablo
konferens
Brexit
insegna
browser
אַציע
משכנתא
▁המקושרים
▁לפתוח
סטנדרט
taiteilija
▁מתכונים
▁מעניק
90.000
estalvi
fizio
personell
emergenza
חקר
hozatal
mhlith
continent
Special
inclusiv
overensstemmelse
▁ההבדל
▁מיכאל
exposicions
▁פלפל
▁אדמה
▁בעסער
.09.2016
▁האישה
▁לשלב
▁המקומית
balulekile
▁מאמין
▁שייך
cchetti
koormus
tilaisuus
▁שואל
hlutfall
▁אינטר
senderismo
qitish
ahooda
serasera
ntellektuel
בריק
ענטער
ytelse
auftrag
שבע
opauz
professor
including
▁אחסון
▁תלמידים
kustannuksi
▁כאלו
הפעלה
▁במטרה
GDPR
forgalmi
hallitus
Scanpix
▁ילדי
rnatish
ךְ
שליח
orientierte
salaatti
beitrag
hesab
Image
schiff
2,0
עוז
ומם
GOVOR
NYCH
▁המקומי
beauty
kapcsolat
include
mempertimbangkan
איטליה
Eaglais
▁כוכבים
hamasisha
tumblr
▁לבקר
▁חכם
▁לגלות
Donald
▁תושב
tukufu
▁יוד
חלקם
▁במועד
llustrator
hiwalay
ONDI
▁ציבורי
rezerv
equipament
intindi
skrevet
albero
▁הויפט
לומדים
orgoglio
konflikt
ממוקם
▁הדיון
REGISTR
▁סיום
▁צבאי
Dream
kabiliwa
▁נמל
familj
Daniel
agricoltura
AMENTE
mekanism
tolerance
מאמץ
▁נייר
יעשה
▁מתאר
anampy
טוויט
נפט
endelee
3,00
Sync
LEGE
▁הביא
olombelona
▁ארוכה
▁התנועה
▁מהמערכת
ombudsman
Science
▁אשמח
▁שהגיע
seperti
South
neutral
POLITIK
niesienie
אנער
prinsip
מכונית
LAIN
irfidh
anzeige
HAMA
ghetto
אָק
Quaestio
kvapi
מידת
KAWA
▁שטיי
ipoitra
KUVA
▁היכולת
▁למערכת
▁תנועה
bwechslungsreich
תופעה
[32]
aujourd
Hrvatska
▁המדע
medence
tarvike
מילוי
aperto
ongelma
▁קאפ
komponent
rsatuv
kanava
OLOGIA
Auditori
רכוש
ֵּ
ulottu
נאצי
דינג
Sign
▁במקביל
▁בסעיף
sverigesradio
▁פעולות
▁רציני
▁בחירת
פונקצי
tekeleza
appartement
myynti
endroit
Gruppe
Suomi
▁נועד
Partner
paikasta
▁יוסי
verbindung
▁סינ
▁אונדז
Virumaa
preemia
פשע
אוהד
מלכות
kijken
pitondrana
ynhadledd
▁לביטוח
▁אמריקאי
סטודיו
הכוונה
▁קולנוע
Allemagne
▁בשעות
▁ווידער
תפילה
מכירת
international
sjukdom
Expert
waxaana
gefunden
צריך
שמור
הפקת
gymnasiet
TAVA
maafkan
voorziening
Observatori
קבצים
relaterade
kiggede
isolation
חזית
ealladh
תחייב
עדכן
▁נורא
lehdet
Azur
בנק
▁באשר
איחוד
Archiv
יועץ
eccellenza
gynhyrchu
konferenz
▁רלוונטי
▁לצפיה
ttraksjoner
▁בגודל
▁העוסק
▁אויפֿ
intercanvi
Kamp
assembla
תמונות
huollon
Festival
Gipuzkoa
Alacant
kompleks
acharya
▁אפל
pigment
chirurgi
סטאר
swami
electric
נישט
▁הרשמי
arxiu
משיכה
Ouest
aukite
smijeh
angarap
▁אמעריקע
משקיעים
▁תוכנה
▁ובעיקר
▁זוהי
CIONES
▁זײ
agsisimula
▁המאפשר
▁רעדן
▁גאָר
omhlaba
agradaria
inverno
estableix
ulotlar
▁ספרד
▁שמונה
▁שולח
תמקד
▁רשמי
Narodne
▁גולד
שבין
▁שווא
פֿיל
▁אֶת
▁וויאזוי
▁לעסקים
▁רציתי
▁באירוע
staaltjie
▁הנוגע
▁הבדל
Quiere
inaugura
Nederland
sokajy
רומנטי
▁המערבי
ספור
▁זאג
bepaling
חצי
aptitud
alueilla
kenntnisse
gundua
besuch
▁להניח
▁לקבוע
מועצת
▁רישום
▁ואילו
▁גוטע
interpretazione
אמריקני
identification
fikisha
Search
Girl
higpit
czyzn
▁מגיל
תיבת
aaseen
kunjalo
Touch
undamental
TOIMI
positivo
konstruo
shield
ריבית
zingatia
pradesh
▁געהערט
▁לתוכן
▁מנחם
▁אַרויס
▁מלבד
▁מקווה
▁הנאה
shambuliaji
▁להכניס
meliyiz
hahahahaha
חסר
▁קאָד
menettely
בשל
kommunikasiya
אוטובוס
Pakistan
gesprek
▁יגיע
ESCU
soratana
קחו
anggota
prkos
kuriais
mettersi
פשר
opetus
haigus
lanuvchi
EYE
שאיר
Pirenena
▁הארגון
▁הכניסה
▁אַנדערע
▁באיזור
▁לכולם
▁הוועדה
guvernamental
▁בנימין
▁קרקע
BTTTT
▁מוקדם
lisinsje
puccino
geschaut
abandon
Patri
Biblio
▁פיצוי
betjent
(9)
efaso
Frans
arazten
distribusi
ngekuwa
desenvolv
ruppu
imbangkan
▁אופניים
▁הבחירות
geschakeld
▁ווייטער
ווײַ
enregistrement
Povestea
▁מיידי
▁השונות
kommunikatsiooni
gestaltung
▁לשנת
קריאת
רכז
Khmer
פונה
vaiheessa
through
William
ullanabilirsiniz
communication
flytning
רוויח
VISION
סעד
kosmetyk
nimmt
IRMA
beredning
leichzeitig
תקנה
▁פסיכולוגי
▁נפוצות
buztuaren
▁אמריקה
lywio
▁אורך
שפיל
שכונה
הישג
Xalq
wirklich
kogemus
harakatlar
יעילות
politische
client
////
verhale
אוכלוסייה
Isiraely
ryhmien
▁בבלוג
▁שחקנים
▁טיסות
▁נומער
מלווה
aixeca
הנחיות
מחצית
Project
people
opettaja
Speed
Problem
bekannt
tweet
▁כפול
asunnot
פינג
komercial
annuncio
Konfigur
olycka
▁חודשי
kuierplek
▁להעניק
נסיעות
▁לטענת
qhubeka
▁מעורר
הגדרות
▁מגורים
tangazwa
▁נוכל
palayam
בשר
▁טעלע
Prognoz
שבועיים
5/5)
reklaam
▁נייד
stycke
kakvih
raportti
encyklopedi
ammefermelding
pianakaviana
▁התנהגות
▁קדימה
assunzione
▁מסוימים
▁בחיפה
▁הקיץ
STYLE
edilizia
phepha
70,000
.12.2012
ירושלים
tuotteita
▁קאָמ
protokoll
mogelijkheden
ocupa
▁אינסט
▁וכש
▁ניכר
[2][3]
נברג
positsiooni
Igualada
חווה
ereikia
נפח
tarjonta
שְׁ
▁רביעי
yfrwng
מסור
oittamaan
liikkeen
יישום
hrvatski
kokemuksen
ALKO
voorwaarden
security
Dollar
forsamlingen
accumul
scott
tallace
Mestrado
מכונה
OTHER
מובילים
REME
izdevums
hutubia
▁כדורגל
Sullivan
▁אליכם
tumikia
cynnau
Necesita
stahili
שדרות
hagyma
oportunitat
forfatter
President
Leistung
רופן
ERDE
למרות
scrivere
ANDRA
שבוע
United
rezolut
HISTORI
terapevt
▁האפשרות
חכמים
▁בתקופת
תכניות
▁הנדרש
aleshores
▁רעיון
istituto
ontwikkeling
arrangement
Christian
sanitari
bilirsin
propyl
tauchen
חסד
ionnaires
מצב
קרנות
ristrutturazione
▁בסגנון
confidencial
מרפסת
▁מאיתנו
anterahina
▁בדיקה
▁רשימה
.09.2015
זאָג
omicidio
צופה
neutraal
elaborazione
Angebot
מסיבה
פטור
aruande
chruinn
שכב
טראָ
vertegenwoordig
▁אסטרטגי
תופעות
הגעתי
qrafik
[33]
▁בילדער
ttenimento
▁טלפוני
Fraktion
fundamentalmente
קליפ
Euskal
promenad
succes
kiekko
ametnik
Amour
religio
Trump
viedli
PartekatuBerdin
▁העצמאות
stacjonarn
verletzung
INDUSTRI
▁ניצן
oideachas
▁החברים
▁במחשב
הכשרה
shawishi
תקנו
סכים
yksinkertaisesti
kohteet
eidiwch
hoidja
kuphila
depressiv
Cambodia
assistenza
masyarakat
נערך
preocup
אנען
tembea
▁שכחת
מלכה
סטייל
▁פותח
ENNE
afaporitsaka
▁בפורום
▁לאקאציע
▁מוחלט
csarnok
Gazprom
בחינת
zapomn
oszlop
vaatimus
WordPress
Pentru
seksuaal
▁צמחי
miestne
ETTER
lifikowa
aconsegueix
behandlung
▁קפיצה
bewegung
▁קודמות
▁להרגיש
bibliothek
▁חוקר
pilnveido
0,1%
impasto
chock
Aktiv
forberedelse
mountain
hieronta
archae
quisition
.01.2012
mootori
lazimik
konstrukci
Zlatn
מעין
burkolat
בקבוק
kauplus
מנחה
ohvri
insomni
היכל
קייַט
apparition
Associate
vriend
WALI
kujundus
WANAFUNZI
iboridana
▁לפגוע
Lokomotiv
▁הקרקע
ograafia
kyvyn
tekelezwa
7,00
Euskaldun
ִּ
aamisesta
englanti
Management
Indonesia
Galicia
טעמים
▁הדתי
walifika
ortintoj
schirm
קבר
ightening
▁אַרויף
STRATEGI
זיהוי
▁הוספת
▁חשבתי
tutkinnon
▁מסמכים
acquisizione
▁וכדומה
השכלה
mwambia
udlejning
badilika
התנהלות
toiminnassa
ETXE
sustentabilidade
▁כניסת
mozdul
Industri
Youtube
Adobe
esistente
kreemi
approvazione
מצלמות
Czerwon
alphabet
criptovore
ascolto
autunno
beauftragte
בוך
MEDIA
Magazin
bewust
ִּי
3,5%
entreteniment
▁מוגש
קאַטעגאָריע
▁הופך
▁להדפסה
wasilishwa
▁בתפקיד
▁ממשיך
nkastoo
קובצי
deutschland
kaapeli
oinnista
leikkaus
ographia
sovellus
▁התקשרו
windows
develop
▁תלמידי
ירוף
תקף
peegel
▁בספטמבר
▁פרעזידענט
▁גארנישט
Gipfel
▁הרעיון
▁להישאר
edaqoji
תכנן
obserwuj
meridian
▁אידיש
puhastus
esperit
adeirydd
schuhe
▁ואינ
intervju
amicizia
bgesehen
שחק
000.00
צפת
kereskedelem
▁באירופה
▁התלמידים
nkqubo
▁נפגש
MISSION
[37]
הכנסות
lieferung
chunguza
▁קאמפ
▁מרתק
symmetri
חביב
יצירות
interroge
elancong
fartyg
experiment
autonomia
הכרה
נהוג
maharashtra
Implijout
▁אױף
▁לעצמו
[36]
Kbps
rsatilgan
▁הזכות
▁נרחב
▁מיקרו
korrusel
קביעת
הזמנות
נפוצ
aarbij
חטא
▁יאיר
gegooi
nkonzo
10.2012
Cymru
Vokietija
Warbixin
iriwayatkan
אמבטיה
▁לרשימת
▁לצפייה
עישון
▁היסוד
▁קלאסי
Onlangse
פיקוח
utflykt
ampijoro
▁בעתיד
diefstal
fheidhm
ressurs
forbindelse
וועסט
komplekt
London
PSOE
Bundes
OITUS
0.000,00
▁להחליף
▁לפועל
Ensenyament
▁המופיע
TIEDOT
מסיבות
betegnelse
מכונות
kumkani
eeritakse
עמדות
התמודדות
זכויות
Majoritatea
Arsenal
Australia
זרוע
ternitat
geschwindigkeit
kustannukset
[34]
▁האימייל
▁כשהוא
▁הקטן
greidd
אָנאַ
▁חמור
משתתפי
occupa
verktyg
kuljettaja
temporaneamente
yhtye
חשוד
attache
300,000
▁לכבוד
▁בתגובה
▁מוסיקה
suomeksi
hirikiana
______________
arrangemang
רחיב
▁מניח
frelsi
תפלל
illuminazione
▁פרופיל
יישר
procedure
iqtisodiy
temperatuur
Galaxy
Economia
Accept
מזונות
▁המוכר
trairement
Bukankah
abbigliamento
▁ההחלטה
▁פתאום
▁הקודש
▁פיננסי
geworfen
logitekstit
עדכון
Szolnok
QUOTE
oeuf
plibonig
מחלת
▁עיקרי
migrasi
veitinga
עלולים
revisjon
Wolf
עלויות
xnologiya
marmelad
verarbeitung
▁הולכים
▁קאָפּיע
schakelen
צמיחה
▁הכבוד
▁טיילן
▁הבריטי
▁מחלות
gegriffen
samninga
ברזיל
גוג
UJU
markkinat
prognose
Dodatkow
uskunalar
ngaphezu
Vojvod
אינטרנט
utveckla
League
seizoen
kertomus
אַקאַ
kriminal
ניצול
obuhvat
terveydenhuollon
gebrochen
ארוחות
▁פריינט
kymppi
reaktio
ntwoordelijkheid
aternidad
tahimik
uudistus
Contact
hallituksen
release
ateicoties
Ganacsiga
▁בגוגל
▁להימנע
שיפוץ
▁האנושי
▁המחוזי
potentsiaal
▁נתקל
▁הצלחת
ononkalo
ngempela
▁האזרחי
kohteita
<<<
gvidanto
agagamit
marrjen
כריז
Punjab
trygd
▁לאירוע
Mombamomba
Unlabelled
▁באוגוסט
▁דעצעמבער
האַלטן
Uudenmaan
▁יעוץ
batzorde
▁מקסים
.03.2014
▁מדויק
Recenzi
iapua
Packard
סתובב
___________
▁עירוני
appuntamento
democrat
seluruh
betreuung
piskelijoiden
wettbewerb
▁החתונה
sprezece
cambogia
▁לתפקיד
צעצוע
aodaidh
tsionaalse
▁ללימודי
▁צבעוני
eccezione
sejtek
maatschappelijke
▁להצטרף
▁ספציפי
▁עטליכע
▁שיותר
▁יוקרתי
natarajia
uslubiy
▁מגזין
ריהוט
חיוב
jiandaa
komerc
fascist
דרישה
שכונת
infeksjon
Prakt
ttraverso
Elektr
sekvenc
UZU
tillverkare
▁המצוי
WhatsApp
Pontevedra
Thomas
▁מסביב
bendradarbiavimo
זאַמ
OFFICIAL
suunnittelija
▁דאַרפֿן
▁הרצליה
hegtenis
▁האורחים
▁מוסיפים
▁נעמט
svobod
Alemanya
isztikus
טיפוח
smykke
Previous
geloof
hakikisha
Connect
behindert
ncyclopedia
esiNgesi
▁בדצמבר
▁הצהרת
▁סיסטעם
שוחרר
▁מארטש
צטרך
tjetrit
מפלגת
אנגליה
fhoirm
Vjerujem
חשיפה
introduzione
attachment
comunitari
uuliyad
Portugal
yhoeddwyd
szakasz
SUUNNITELMA
[39]
▁נמוכה
atteggiamento
PALVELU
▁נוהג
erlebnis
התנגדות
ארוחה
הלכתי
civiliz
kehitys
besparelse
uuringute
פיגוע
palkkio
oterapii
tidspunkt
Dokument
activiteiten
amerikansk
Xukuumad
dodatna
jasiriamali
טראַכט
orthodox
▁עצמך
reftadaeth
▁צוליב
akadeemia
▁בינואר
▁תאורה
gebroken
drijven
תגובת
▁יידישע
tafsiri
mottagning
בזק
assassinat
filosofi
▁ארטיקל
בלונדיני
מינימום
▁ההודעה
▁להשכרה
▁לציבור
▁המערער
מסיבת
▁דלתות
▁אהרן
Defnydd
seinandersetzung
תכשיט
▁מנהיג
verplichting
referent
zainteresowanych
Secret
children
Bagaimana
▁המשמעות
▁ויקינתונים
▁הטיול
hudumia
erkrankung
[40]
Dienst
imhneach
sthetic
nechajte
vlieg
תרומה
וגרפיה
kereskedelm
Insgelyks
Pakalpojum
▁אַרייַנ
▁וואָלט
זכתה
coimhead
▁נכסים
Esquerra
valdkondade
.07.2015
אכילה
התמחות
Barnaamij
tillverkning
מנעול
uodamas
משהו
schlecht
privacy
beweging
behandeling
protseduur
ynghrair
▁מושלמת
▁סטודנטים
Jugosllavi
▁אליעזר
▁ציטוט
puhelimen
daberite
kuqonda
forgalma
חשף
Partekatu
עובר
מכוניות
▁הגרמני
ispirazione
װײ
Journal
Please
בריטניה
גערעדט
▁להורדה
matoanteny
▁פונקט
ממילא
▁ממוצע
midlalo
jewelry
valmennus
תפיסה
dampingi
▁מינוט
▁הצרפתי
konserni
הפרעות
Ukurasa
ndependentemente
relativement
assessorament
construction
heshimiwa
redakteur
Wikipedia
+00:00
Elfogadom
מתמטיקה
▁באוקטובר
▁בטלפון
▁לניוזלטר
Lietuva
Makofi
▁בעצמו
[35]
הרחבה
.03.2015
different
Refresh
martabat
fjild
piirangu
eeritav
הצטרפות
ipengele
sertifika
vahinko
wetenschappelijk
utdelning
osobowy
territooriumi
מתקדמים
▁לחשבון
HAPPY
▁סרגל
Vilniaus
interfaco
arkitekt
zusammengestellt
Crypt
אָנע
dajalec
effizient
מועצה
Chandigarh
geleenthede
▁שהייתה
kokoonpano
ainmneacha
ynaliadwy
▁בקיצור
Document
together
charakteristik
narayana
izziamo
turvallisuuden
Aquila
Fatihah
הפסד
rhythm
petussuunnitelma
מכבי
Consult
assicurazione
▁באפריל
▁ייִדן
▁לבחון
▁לניהול
▁מעוניין
▁הקולנוע
overenskomst
▁הנזק
[38]
Student
pippuri
arvustus
Rhythm
תפקוד
משורר
dimensjon
reference
fasiliteter
Arquitect
KATEGORI
rakennuksen
▁האהוב
מעדיע
categorie
ayaashii
eiterentwicklung
overnattingssted
eleganza
▁מיותר
pomorskie
▁לוודא
einerseits
05.2015
hagyott
פרסומי
menedzsment
▁בנובמבר
vahendeid
▁שֶׁ
konkurranse
tsjinst
moottori
▁אויטאס
▁אשקלון
▁כלשהי
fhreagra
eejuures
▁ההיסטורי
heffing
hugann
contactformulier
lwimi
kirjoitukse
סוחר
yflawn
גאַנג
תקיימו
responsibilities
זכוכית
▁באקאנט
▁להבטיח
▁רישיון
▁גולשים
bestimmungen
▁ענגליש
הרצאה
עוצמה
▁בינתיים
jarahasin
▁לטיול
utbildad
gebonden
geachtet
Mitglied
Toyota
חילופי
entrenament
Eileanan
ֻ
avanguardia
▁אַוועק
▁געשעפט
▁ייחוס
▁מדהימה
▁הרמב
▁יוצג
[44]
pehintan
עוצמת
Beauty
Kenapa
משטרת
pessimist
intrigue
Baqarah
shunoslik
▁דעמאָלט
▁הבחירה
▁לוותר
obstantibus
turvalisus
סבתא
Abgeordnete
monument
סוכן
================
insertion
reducing
2018-04-0
Skelbimai
▁געקענט
▁העתיקה
▁לדוגמה
▁לכתבה
▁באפשרות
▁לעצמי
▁חווית
▁העצמי
Axundov
sekreterare
emprenedor
תהליכים
inkluziv
shughuli
minskning
viljely
skreaun
siynol
Pavasar
ingenieur
nzwischen
aktuell
Ingredient
Starptautisk
jifunza
NASDAQ
zogenaamde
׃
▁חנוכה
געלייגט
▁המודרני
itambulisho
Kesatuan
ינשטיין
gudstjeneste
empreses
verandering
dynamic
algatus
Bakcell
▁משאבי
anggep
toimetaja
aproximadament
OSPITAL
הנחות
▁הוגש
Budapest
Original
eaglais
privileg
livyokuwa
Bhayibhile
ֽ
▁עצום
puhdistus
arredamento
אבחון
planeeringu
rekebish
People
Sverige
geborene
ysylltiadau
approfondimento
anpassad
Accademia
arkkitehtuuri
thrombophlebitis
טמפרטור
ׂ
ֱ
֣
֥
֖
ֿ
֔
֑
֙
ֳ
֛
֗
֤
֨
֧
֚
׀
ׅ
֝
֭
֜
֞
<mask>
